{
  "version": "1.0",
  "truncation": null,
  "padding": null,
  "added_tokens": [
    {
      "id": 0,
      "content": "<pad>",
      "single_word": false,
      "lstrip": false,
      "rstrip": false,
      "normalized": false,
      "special": true
    },
    {
      "id": 1,
      "content": "<unk>",
      "single_word": false,
      "lstrip": false,
      "rstrip": false,
      "normalized": false,
      "special": true
    },
    {
      "id": 2,
      "content": "<mask>",
      "single_word": false,
      "lstrip": false,
      "rstrip": false,
      "normalized": false,
      "special": true
    },
    {
      "id": 3,
      "content": "<s>",
      "single_word": false,
      "lstrip": false,
      "rstrip": false,
      "normalized": false,
      "special": true
    },
    {
      "id": 4,
      "content": "</s>",
      "single_word": false,
      "lstrip": false,
      "rstrip": false,
      "normalized": false,
      "special": true
    },
    {
      "id": 5,
      "content": "<|endoftext|>",
      "single_word": false,
      "lstrip": false,
      "rstrip": false,
      "normalized": false,
      "special": true
    },
    {
      "id": 6,
      "content": "<|im_start|>",
      "single_word": false,
      "lstrip": false,
      "rstrip": false,
      "normalized": false,
      "special": true
    },
    {
      "id": 7,
      "content": "<|im_end|>",
      "single_word": false,
      "lstrip": false,
      "rstrip": false,
      "normalized": false,
      "special": true
    },
    {
      "id": 8,
      "content": "<|user|>",
      "single_word": false,
      "lstrip": false,
      "rstrip": false,
      "normalized": false,
      "special": true
    },
    {
      "id": 9,
      "content": "<|assistant|>",
      "single_word": false,
      "lstrip": false,
      "rstrip": false,
      "normalized": false,
      "special": true
    },
    {
      "id": 10,
      "content": "<|system|>",
      "single_word": false,
      "lstrip": false,
      "rstrip": false,
      "normalized": false,
      "special": true
    }
  ],
  "normalizer": {
    "type": "Sequence",
    "normalizers": [
      {
        "type": "NFKC"
      },
      {
        "type": "StripAccents"
      }
    ]
  },
  "pre_tokenizer": {
    "type": "ByteLevel",
    "add_prefix_space": false,
    "trim_offsets": true,
    "use_regex": true
  },
  "post_processor": {
    "type": "TemplateProcessing",
    "single": [
      {
        "SpecialToken": {
          "id": "<s>",
          "type_id": 0
        }
      },
      {
        "Sequence": {
          "id": "A",
          "type_id": 0
        }
      },
      {
        "SpecialToken": {
          "id": "</s>",
          "type_id": 0
        }
      }
    ],
    "pair": [
      {
        "SpecialToken": {
          "id": "<s>",
          "type_id": 0
        }
      },
      {
        "Sequence": {
          "id": "A",
          "type_id": 0
        }
      },
      {
        "SpecialToken": {
          "id": "</s>",
          "type_id": 0
        }
      },
      {
        "Sequence": {
          "id": "B",
          "type_id": 1
        }
      },
      {
        "SpecialToken": {
          "id": "</s>",
          "type_id": 1
        }
      }
    ],
    "special_tokens": {
      "</s>": {
        "id": "</s>",
        "ids": [
          4
        ],
        "tokens": [
          "</s>"
        ]
      },
      "<s>": {
        "id": "<s>",
        "ids": [
          3
        ],
        "tokens": [
          "<s>"
        ]
      }
    }
  },
  "decoder": {
    "type": "ByteLevel",
    "add_prefix_space": true,
    "trim_offsets": true,
    "use_regex": true
  },
  "model": {
    "type": "BPE",
    "dropout": null,
    "unk_token": "<unk>",
    "continuing_subword_prefix": null,
    "end_of_word_suffix": null,
    "fuse_unk": false,
    "byte_fallback": true,
    "ignore_merges": false,
    "vocab": {
      "<pad>": 0,
      "<unk>": 1,
      "<mask>": 2,
      "<s>": 3,
      "</s>": 4,
      "<|endoftext|>": 5,
      "<|im_start|>": 6,
      "<|im_end|>": 7,
      "<|user|>": 8,
      "<|assistant|>": 9,
      "<|system|>": 10,
      "!": 11,
      "\"": 12,
      "#": 13,
      "$": 14,
      "%": 15,
      "&": 16,
      "'": 17,
      "(": 18,
      ")": 19,
      "*": 20,
      "+": 21,
      ",": 22,
      "-": 23,
      ".": 24,
      "/": 25,
      "0": 26,
      "1": 27,
      "2": 28,
      "3": 29,
      "4": 30,
      "5": 31,
      "6": 32,
      "7": 33,
      "8": 34,
      "9": 35,
      ":": 36,
      ";": 37,
      "<": 38,
      "=": 39,
      ">": 40,
      "?": 41,
      "@": 42,
      "A": 43,
      "B": 44,
      "C": 45,
      "D": 46,
      "E": 47,
      "F": 48,
      "G": 49,
      "H": 50,
      "I": 51,
      "J": 52,
      "K": 53,
      "L": 54,
      "M": 55,
      "N": 56,
      "O": 57,
      "P": 58,
      "Q": 59,
      "R": 60,
      "S": 61,
      "T": 62,
      "U": 63,
      "V": 64,
      "W": 65,
      "X": 66,
      "Y": 67,
      "Z": 68,
      "[": 69,
      "\\": 70,
      "]": 71,
      "^": 72,
      "_": 73,
      "`": 74,
      "a": 75,
      "b": 76,
      "c": 77,
      "d": 78,
      "e": 79,
      "f": 80,
      "g": 81,
      "h": 82,
      "i": 83,
      "j": 84,
      "k": 85,
      "l": 86,
      "m": 87,
      "n": 88,
      "o": 89,
      "p": 90,
      "q": 91,
      "r": 92,
      "s": 93,
      "t": 94,
      "u": 95,
      "v": 96,
      "w": 97,
      "x": 98,
      "y": 99,
      "z": 100,
      "{": 101,
      "|": 102,
      "}": 103,
      "~": 104,
      "¡": 105,
      "¢": 106,
      "£": 107,
      "¤": 108,
      "¥": 109,
      "¦": 110,
      "§": 111,
      "¨": 112,
      "©": 113,
      "ª": 114,
      "«": 115,
      "¬": 116,
      "®": 117,
      "¯": 118,
      "°": 119,
      "±": 120,
      "²": 121,
      "³": 122,
      "´": 123,
      "µ": 124,
      "¶": 125,
      "·": 126,
      "¸": 127,
      "¹": 128,
      "º": 129,
      "»": 130,
      "¼": 131,
      "½": 132,
      "¾": 133,
      "¿": 134,
      "À": 135,
      "Á": 136,
      "Â": 137,
      "Ã": 138,
      "Ä": 139,
      "Å": 140,
      "Æ": 141,
      "Ç": 142,
      "È": 143,
      "É": 144,
      "Ê": 145,
      "Ë": 146,
      "Ì": 147,
      "Í": 148,
      "Î": 149,
      "Ï": 150,
      "Ð": 151,
      "Ñ": 152,
      "Ò": 153,
      "Ó": 154,
      "Ô": 155,
      "Õ": 156,
      "Ö": 157,
      "×": 158,
      "Ø": 159,
      "Ù": 160,
      "Ú": 161,
      "Û": 162,
      "Ü": 163,
      "Ý": 164,
      "Þ": 165,
      "ß": 166,
      "à": 167,
      "á": 168,
      "â": 169,
      "ã": 170,
      "ä": 171,
      "å": 172,
      "æ": 173,
      "ç": 174,
      "è": 175,
      "é": 176,
      "ê": 177,
      "ë": 178,
      "ì": 179,
      "í": 180,
      "î": 181,
      "ï": 182,
      "ð": 183,
      "ñ": 184,
      "ò": 185,
      "ó": 186,
      "ô": 187,
      "õ": 188,
      "ö": 189,
      "÷": 190,
      "ø": 191,
      "ù": 192,
      "ú": 193,
      "û": 194,
      "ü": 195,
      "ý": 196,
      "þ": 197,
      "ÿ": 198,
      "Ā": 199,
      "ā": 200,
      "Ă": 201,
      "ă": 202,
      "Ą": 203,
      "ą": 204,
      "Ć": 205,
      "ć": 206,
      "Ĉ": 207,
      "ĉ": 208,
      "Ċ": 209,
      "ċ": 210,
      "Č": 211,
      "č": 212,
      "Ď": 213,
      "ď": 214,
      "Đ": 215,
      "đ": 216,
      "Ē": 217,
      "ē": 218,
      "Ĕ": 219,
      "ĕ": 220,
      "Ė": 221,
      "ė": 222,
      "Ę": 223,
      "ę": 224,
      "Ě": 225,
      "ě": 226,
      "Ĝ": 227,
      "ĝ": 228,
      "Ğ": 229,
      "ğ": 230,
      "Ġ": 231,
      "ġ": 232,
      "Ģ": 233,
      "ģ": 234,
      "Ĥ": 235,
      "ĥ": 236,
      "Ħ": 237,
      "ħ": 238,
      "Ĩ": 239,
      "ĩ": 240,
      "Ī": 241,
      "ī": 242,
      "Ĭ": 243,
      "ĭ": 244,
      "Į": 245,
      "į": 246,
      "İ": 247,
      "ı": 248,
      "Ĳ": 249,
      "ĳ": 250,
      "Ĵ": 251,
      "ĵ": 252,
      "Ķ": 253,
      "ķ": 254,
      "ĸ": 255,
      "Ĺ": 256,
      "ĺ": 257,
      "Ļ": 258,
      "ļ": 259,
      "Ľ": 260,
      "ľ": 261,
      "Ŀ": 262,
      "ŀ": 263,
      "Ł": 264,
      "ł": 265,
      "Ń": 266,
      "Ġt": 267,
      "he": 268,
      "čĊ": 269,
      "Ġa": 270,
      "in": 271,
      "Ġthe": 272,
      "Ġw": 273,
      "Ġs": 274,
      "Ġo": 275,
      "re": 276,
      "nd": 277,
      "ha": 278,
      "er": 279,
      "ou": 280,
      "Ġb": 281,
      "it": 282,
      "is": 283,
      "ed": 284,
      "Ġm": 285,
      "on": 286,
      "en": 287,
      "Ġof": 288,
      "Ġf": 289,
      "Ġc": 290,
      "Ġto": 291,
      "Ġand": 292,
      "ing": 293,
      "or": 294,
      "es": 295,
      "ĠĠ": 296,
      "ll": 297,
      "Ġd": 298,
      "ar": 299,
      "an": 300,
      "as": 301,
      "Ġp": 302,
      "Ġin": 303,
      "Ġh": 304,
      "at": 305,
      "Ġl": 306,
      "Ġhe": 307,
      "Ġn": 308,
      "Ġha": 309,
      "om": 310,
      "hat": 311,
      "ĠI": 312,
      "le": 313,
      "Ġbe": 314,
      "ot": 315,
      "Ġg": 316,
      "ic": 317,
      "ow": 318,
      "ut": 319,
      "ve": 320,
      "st": 321,
      "se": 322,
      "ld": 323,
      "ly": 324,
      "im": 325,
      "id": 326,
      "Ġe": 327,
      "Ġthat": 328,
      "Ġy": 329,
      "Ġth": 330,
      "gh": 331,
      "ent": 332,
      "Ġwas": 333,
      "ce": 334,
      "ion": 335,
      "Ġit": 336,
      "al": 337,
      "Ġon": 338,
      "et": 339,
      "ay": 340,
      "ith": 341,
      "ver": 342,
      "Ġyou": 343,
      "ir": 344,
      "Ġre": 345,
      "ĠĠĠĠ": 346,
      "Ġu": 347,
      "Ġwh": 348,
      "Ġas": 349,
      "Ġhis": 350,
      "ur": 351,
      "Ġfor": 352,
      "ad": 353,
      "Ġwith": 354,
      "ĠT": 355,
      "Ġwe": 356,
      "ro": 357,
      "ght": 358,
      "her": 359,
      "ac": 360,
      "Ġst": 361,
      "Ġis": 362,
      "ri": 363,
      "Ġhad": 364,
      "Ġnot": 365,
      "Ġan": 366,
      "ould": 367,
      "am": 368,
      "ter": 369,
      "oo": 370,
      "--": 371,
      "Ġat": 372,
      "and": 373,
      "ill": 374,
      "if": 375,
      "ke": 376,
      "Ġher": 377,
      "ĠM": 378,
      "ain": 379,
      "ec": 380,
      "ĠA": 381,
      "ĠS": 382,
      "ch": 383,
      "'s": 384,
      "Ġhim": 385,
      "ĠH": 386,
      "Ġme": 387,
      "red": 388,
      "ess": 389,
      "Ġsa": 390,
      "il": 391,
      "ore": 392,
      "Ġ\"": 393,
      "th": 394,
      "Ġse": 395,
      "Ġsu": 396,
      "Ġhave": 397,
      "ich": 398,
      "the": 399,
      "all": 400,
      "ĠThe": 401,
      "Ġso": 402,
      "ĠB": 403,
      "ome": 404,
      "rom": 405,
      ".\"": 406,
      "Ġr": 407,
      "ul": 408,
      "ge": 409,
      "pp": 410,
      "Ġby": 411,
      "ight": 412,
      "Ġbut": 413,
      "Ġshe": 414,
      "Ġmy": 415,
      "qu": 416,
      "Ġwhich": 417,
      "Ġall": 418,
      "Ġk": 419,
      "ĠC": 420,
      "to": 421,
      "us": 422,
      ",\"": 423,
      "est": 424,
      "Ġor": 425,
      "Ġup": 426,
      "ab": 427,
      "el": 428,
      "Ġsh": 429,
      "res": 430,
      "em": 431,
      "our": 432,
      "Ġfrom": 433,
      "Ġcon": 434,
      "Ġsaid": 435,
      "ĠW": 436,
      "ant": 437,
      "ation": 438,
      "Ġthis": 439,
      "ous": 440,
      "Ġthey": 441,
      "Ġdo": 442,
      "ust": 443,
      "Ġwhe": 444,
      "ard": 445,
      "un": 446,
      "Ġwere": 447,
      "ind": 448,
      "Ġne": 449,
      "Ġv": 450,
      "ers": 451,
      "Ġex": 452,
      "Ġman": 453,
      "ĠĠĠĠĠĠĠĠ": 454,
      "lf": 455,
      "ra": 456,
      "art": 457,
      "very": 458,
      "Ġwho": 459,
      "out": 460,
      "ong": 461,
      "Ġde": 462,
      "ell": 463,
      "ast": 464,
      "ist": 465,
      "os": 466,
      "Ġno": 467,
      "ie": 468,
      "ect": 469,
      "Ġare": 470,
      "han": 471,
      "Ġone": 472,
      "ol": 473,
      "ood": 474,
      "um": 475,
      "ĠP": 476,
      "Ġthem": 477,
      "Ġsp": 478,
      "Ġal": 479,
      "Ġwould": 480,
      "ate": 481,
      "Ġli": 482,
      "ound": 483,
      "ame": 484,
      "Ġkn": 485,
      "ĠL": 486,
      "op": 487,
      "ough": 488,
      "one": 489,
      "The": 490,
      "Ġtheir": 491,
      "ig": 492,
      "nt": 493,
      "Ġbeen": 494,
      "ak": 495,
      "Ġab": 496,
      "own": 497,
      "ĠG": 498,
      "Ġthere": 499,
      "pt": 500,
      "ct": 501,
      "Ġout": 502,
      "Ġwor": 503,
      "itt": 504,
      "'t": 505,
      "ort": 506,
      "ook": 507,
      "Ġcom": 508,
      "ĠD": 509,
      "Ġle": 510,
      "ry": 511,
      "ive": 512,
      "Ġwill": 513,
      "ĠF": 514,
      "ven": 515,
      "self": 516,
      "ĠHe": 517,
      "ost": 518,
      "reat": 519,
      "ther": 520,
      "ure": 521,
      "ity": 522,
      "od": 523,
      "ag": 524,
      "ack": 525,
      "Ġwhen": 526,
      "Ġif": 527,
      "ĠE": 528,
      "ide": 529,
      "ose": 530,
      "ace": 531,
      "end": 532,
      "ff": 533,
      "ake": 534,
      "hed": 535,
      "Ġpro": 536,
      "ear": 537,
      "Ġgo": 538,
      "Ġpl": 539,
      "Ġyour": 540,
      "Ġwhat": 541,
      "Ġj": 542,
      "Ġcan": 543,
      "ck": 544,
      "Ġmore": 545,
      "au": 546,
      "Ġany": 547,
      "are": 548,
      "ies": 549,
      "?\"": 550,
      "ĠMr": 551,
      "ond": 552,
      "Ġag": 553,
      "Ġqu": 554,
      "Ġcould": 555,
      "ĠN": 556,
      "Ġsome": 557,
      "Ġun": 558,
      "ish": 559,
      "ass": 560,
      "able": 561,
      "ĠR": 562,
      "ep": 563,
      "ĠO": 564,
      "Ġam": 565,
      "Ġar": 566,
      "ime": 567,
      "Ġtr": 568,
      "ine": 569,
      "we": 570,
      "way": 571,
      "ink": 572,
      "ence": 573,
      "ved": 574,
      "of": 575,
      "Ġinto": 576,
      "pl": 577,
      "ng": 578,
      "hing": 579,
      "Ġvery": 580,
      "ance": 581,
      "fore": 582,
      "other": 583,
      "ice": 584,
      "ite": 585,
      "Ġother": 586,
      "ittle": 587,
      "Ġthan": 588,
      "Ġ'": 589,
      "Ġro": 590,
      "urn": 591,
      "Ġus": 592,
      "Ġfe": 593,
      "Ġknow": 594,
      "ĠJ": 595,
      "ought": 596,
      "ap": 597,
      "ment": 598,
      "ally": 599,
      "wn": 600,
      "ud": 601,
      "Ġsha": 602,
      "ert": 603,
      "ade": 604,
      "Ġhas": 605,
      "Ġlike": 606,
      "ĠIt": 607,
      "Ġtw": 608,
      "age": 609,
      "fter": 610,
      "ble": 611,
      "ious": 612,
      "ord": 613,
      "Ġcl": 614,
      "cc": 615,
      "Ġdid": 616,
      "Ġnow": 617,
      "uch": 618,
      "ings": 619,
      "ĠĠĠ": 620,
      "ove": 621,
      "Ġsee": 622,
      "Ġlittle": 623,
      "Ġen": 624,
      "Ġtime": 625,
      "Ġbr": 626,
      "Ġlook": 627,
      "Ġsay": 628,
      "Ġabout": 629,
      "ount": 630,
      "Ġupon": 631,
      "Ġshould": 632,
      "Ġour": 633,
      "ick": 634,
      "Ġim": 635,
      "ire": 636,
      "Ġ_": 637,
      "ress": 638,
      "ile": 639,
      "be": 640,
      "Ġgr": 641,
      "Ġad": 642,
      "ather": 643,
      "Ġtoo": 644,
      "ree": 645,
      "te": 646,
      "Ġdis": 647,
      "ue": 648,
      "ves": 649,
      "Ġagain": 650,
      "Ġbl": 651,
      "Ġover": 652,
      "Ġgreat": 653,
      "ving": 654,
      "nder": 655,
      "Ġthen": 656,
      "Ġhand": 657,
      "ne": 658,
      "Ġch": 659,
      "act": 660,
      "ĠBut": 661,
      "ife": 662,
      "per": 663,
      "Ġonly": 664,
      "You": 665,
      "Ġdown": 666,
      "ked": 667,
      "ions": 668,
      "Ġday": 669,
      "ip": 670,
      "bl": 671,
      "ary": 672,
      "âĢ": 673,
      "Ġpr": 674,
      "oy": 675,
      "his": 676,
      "Ġoff": 677,
      "ull": 678,
      "Ġpo": 679,
      "ness": 680,
      "ĠAnd": 681,
      "ful": 682,
      "ied": 683,
      "!\"": 684,
      "oll": 685,
      "Ġmuch": 686,
      "Ġthink": 687,
      "Ġper": 688,
      "Ġafter": 689,
      "Ġgood": 690,
      "ward": 691,
      "Ġmust": 692,
      "Ġits": 693,
      "Ġfl": 694,
      "sp": 695,
      "ady": 696,
      "ated": 697,
      "Ġpart": 698,
      "Ġmade": 699,
      "Ġapp": 700,
      "ild": 701,
      "Ġbefore": 702,
      "Ġhow": 703,
      "Ġtwo": 704,
      "for": 705,
      "that": 706,
      "man": 707,
      "irst": 708,
      "har": 709,
      "Ġsuch": 710,
      "ran": 711,
      "Ġmay": 712,
      "old": 713,
      "ru": 714,
      "Ġown": 715,
      "Ġ1": 716,
      "ise": 717,
      "right": 718,
      "Ġsc": 719,
      "Ġpre": 720,
      "Ġway": 721,
      "Ġold": 722,
      "Ġthr": 723,
      "Ġlong": 724,
      "ave": 725,
      "Ġrem": 726,
      "ft": 727,
      "Ġbet": 728,
      "int": 729,
      "ĠĠĠĠĠĠĠĠĠĠĠĠĠĠĠĠ": 730,
      "orn": 731,
      "cl": 732,
      "Ġmen": 733,
      "Ġnever": 734,
      "ber": 735,
      "not": 736,
      "ach": 737,
      "Ġsm": 738,
      "iss": 739,
      "ark": 740,
      "Ġcome": 741,
      "Ġmight": 742,
      "wh": 743,
      "ons": 744,
      "Ġthese": 745,
      "ty": 746,
      "ans": 747,
      "Ġunder": 748,
      "ren": 749,
      "ered": 750,
      "Ġback": 751,
      "Ġcame": 752,
      "hen": 753,
      "Ġwell": 754,
      "Ġfirst": 755,
      "Ġeven": 756,
      "Ġwhere": 757,
      "Ġ(": 758,
      "ily": 759,
      "oss": 760,
      "ried": 761,
      "Ġseem": 762,
      "anc": 763,
      "led": 764,
      "ps": 765,
      "fe": 766,
      "Ġey": 767,
      "av": 768,
      "ign": 769,
      "Ġgl": 770,
      "Ġpe": 771,
      "Ġhere": 772,
      "Ġthought": 773,
      "Ġdes": 774,
      "Ġbec": 775,
      "Ġhimself": 776,
      "Ġcont": 777,
      "ath": 778,
      "ouse": 779,
      "Ġevery": 780,
      "ever": 781,
      "so": 782,
      "de": 783,
      "sh": 784,
      "air": 785,
      "ĠShe": 786,
      "ew": 787,
      "He": 788,
      "Ġcomp": 789,
      "Ġlet": 790,
      "less": 791,
      "It": 792,
      "Ġsl": 793,
      "Ġget": 794,
      "ory": 795,
      "omet": 796,
      "Ġthose": 797,
      "Ġmake": 798,
      "Ġpass": 799,
      "Ġshall": 800,
      "Ġmost": 801,
      "ause": 802,
      "Ġjust": 803,
      "iv": 804,
      "Ġbel": 805,
      "ĠK": 806,
      "Ġimp": 807,
      "Ġlife": 808,
      ".'": 809,
      "riend": 810,
      "Ġlast": 811,
      "ared": 812,
      "Ġwr": 813,
      "ater": 814,
      "Ġaway": 815,
      "ock": 816,
      "Ġthrough": 817,
      "hes": 818,
      "ition": 819,
      "Ġwent": 820,
      "ted": 821,
      "oth": 822,
      "Ġatt": 823,
      "Ġbeing": 824,
      "Ġbeg": 825,
      "with": 826,
      "ci": 827,
      "get": 828,
      "Ġke": 829,
      "atter": 830,
      "ĠIn": 831,
      "ears": 832,
      "Ġexp": 833,
      "ens": 834,
      "ened": 835,
      "land": 836,
      "iz": 837,
      "igh": 838,
      "og": 839,
      "ase": 840,
      "Ġcall": 841,
      "Ġcons": 842,
      "Ġturn": 843,
      "ian": 844,
      "Ġob": 845,
      "ible": 846,
      "Ġyoung": 847,
      "aw": 848,
      "Ġhead": 849,
      "Ġstill": 850,
      "Ġacc": 851,
      "Ġpres": 852,
      "ors": 853,
      "Ġdon": 854,
      "Ġword": 855,
      "mer": 856,
      "row": 857,
      "ertain": 858,
      "Ġear": 859,
      "ople": 860,
      "ult": 861,
      "Ġret": 862,
      "Ġcour": 863,
      "ail": 864,
      "Ġop": 865,
      "ex": 866,
      "alk": 867,
      "ged": 868,
      "Ġrep": 869,
      "Ġtake": 870,
      "ener": 871,
      "Ġwithout": 872,
      "Ġmany": 873,
      "Ġeyes": 874,
      "ĠSt": 875,
      "ĠV": 876,
      ",'": 877,
      "Ġfound": 878,
      "Ġfriend": 879,
      "con": 880,
      "And": 881,
      "ret": 882,
      "was": 883,
      "Ġtell": 884,
      "Ġwant": 885,
      "aking": 886,
      "Ġhar": 887,
      "thing": 888,
      "Ġthough": 889,
      "Ġwork": 890,
      "li": 891,
      "me": 892,
      "ang": 893,
      "ince": 894,
      "Ġwhile": 895,
      "Ġyet": 896,
      "Ġcomm": 897,
      "med": 898,
      "'ll": 899,
      "Ġfar": 900,
      "ations": 901,
      "Ġright": 902,
      "Ġever": 903,
      "up": 904,
      "ject": 905,
      "Ġent": 906,
      "Ġend": 907,
      "Ġwom": 908,
      "ting": 909,
      "oment": 910,
      "Ġface": 911,
      "but": 912,
      "ical": 913,
      "here": 914,
      "Ġsame": 915,
      "sel": 916,
      "ently": 917,
      "Ġput": 918,
      "ĠYou": 919,
      "Ġsomet": 920,
      "com": 921,
      "les": 922,
      "Ġmind": 923,
      "ict": 924,
      "Ġonce": 925,
      "over": 926,
      "ss": 927,
      "ways": 928,
      "Ġnothing": 929,
      "hy": 930,
      "Ġmar": 931,
      "ced": 932,
      "Ġplace": 933,
      "Ġser": 934,
      "ower": 935,
      "But": 936,
      "Ġsupp": 937,
      "you": 938,
      "ished": 939,
      "..": 940,
      "ĠThey": 941,
      "ner": 942,
      "Ġdist": 943,
      "ob": 944,
      "owed": 945,
      "ĠMrs": 946,
      "most": 947,
      "Ġcar": 948,
      "ope": 949,
      "ia": 950,
      "Ġspe": 951,
      "Ġpeople": 952,
      "Ġnew": 953,
      "ple": 954,
      "aid": 955,
      "Ġres": 956,
      "ial": 957,
      "Ġans": 958,
      "Ġint": 959,
      "ither": 960,
      "Ġmoment": 961,
      "ĠThere": 962,
      "den": 963,
      "Ġcount": 964,
      "Ġhouse": 965,
      "ody": 966,
      "su": 967,
      "Ġnat": 968,
      "ix": 969,
      "rest": 970,
      "Ġsaw": 971,
      "Ġgot": 972,
      "Ġnight": 973,
      "Ġheart": 974,
      "Ġac": 975,
      "und": 976,
      "Ġleft": 977,
      "Ġthings": 978,
      "ms": 979,
      "Ġset": 980,
      "ER": 981,
      "Ġfind": 982,
      "Ġbo": 983,
      "ained": 984,
      "Ġanother": 985,
      ",--": 986,
      "Ġlooked": 987,
      "Ġthing": 988,
      "Ġfeel": 989,
      "Ġdec": 990,
      "Ġple": 991,
      "ks": 992,
      "uth": 993,
      "Ġdif": 994,
      "Ġworld": 995,
      "Ġchar": 996,
      "my": 997,
      "ool": 998,
      "ĠWe": 999,
      "cept": 1000,
      "ction": 1001,
      "Ġinst": 1002,
      "apt": 1003,
      "irl": 1004,
      "imes": 1005,
      "ual": 1006,
      "Ġchan": 1007,
      "rew": 1008,
      "Ġlight": 1009,
      "Ġsec": 1010,
      "gg": 1011,
      "vent": 1012,
      "ined": 1013,
      "âĢĻ": 1014,
      "Ġpers": 1015,
      "Ġseemed": 1016,
      "its": 1017,
      "Ġfather": 1018,
      "Ġlove": 1019,
      "Ġsub": 1020,
      "ween": 1021,
      "Ġbelie": 1022,
      "Ġdone": 1023,
      "by": 1024,
      "Ġtook": 1025,
      "ĠEng": 1026,
      "iness": 1027,
      "Ġalways": 1028,
      "ched": 1029,
      "Ġgive": 1030,
      "Ġfoll": 1031,
      "ning": 1032,
      "Ġasked": 1033,
      "aught": 1034,
      "Ġthree": 1035,
      "Ġfell": 1036,
      "ular": 1037,
      "Ġchild": 1038,
      "ross": 1039,
      "ised": 1040,
      "ows": 1041,
      "Ġgoing": 1042,
      "Ġcha": 1043,
      "'d": 1044,
      "ale": 1045,
      "ĠCh": 1046,
      "Ġkind": 1047,
      "Ġwar": 1048,
      "Ġfew": 1049,
      "Ġsw": 1050,
      "Ġbetter": 1051,
      "Ġgi": 1052,
      "Ġhapp": 1053,
      "pped": 1054,
      "Ġstr": 1055,
      "pr": 1056,
      "Ġem": 1057,
      "Ġagainst": 1058,
      "aut": 1059,
      "Ġind": 1060,
      "Ġsur": 1061,
      "Ġheard": 1062,
      "ense": 1063,
      "Ġknew": 1064,
      "elt": 1065,
      "Ġquite": 1066,
      "der": 1067,
      "Ġtold": 1068,
      "Ġside": 1069,
      "Ġreturn": 1070,
      "oot": 1071,
      "had": 1072,
      "ib": 1073,
      "Ġrel": 1074,
      "haps": 1075,
      "Ġsat": 1076,
      "ffect": 1077,
      "gether": 1078,
      "ĠY": 1079,
      "Ġcr": 1080,
      "Ġgu": 1081,
      "Ġwa": 1082,
      "Ġcertain": 1083,
      "ired": 1084,
      "Ġposs": 1085,
      "ott": 1086,
      "ĠGod": 1087,
      "Ġhands": 1088,
      "ited": 1089,
      "Ġrec": 1090,
      "Ġread": 1091,
      "ters": 1092,
      "ully": 1093,
      "Ġenough": 1094,
      "Ġcourse": 1095,
      "Ġseen": 1096,
      "oub": 1097,
      "ĠčĊ": 1098,
      "aken": 1099,
      "Ġyears": 1100,
      "ier": 1101,
      "Ġreg": 1102,
      "Ġboy": 1103,
      "Ġrest": 1104,
      "Ġroom": 1105,
      "Ġsomething": 1106,
      "Ġhalf": 1107,
      "osed": 1108,
      "selves": 1109,
      "app": 1110,
      "Ġsoon": 1111,
      "wards": 1112,
      "ling": 1113,
      "Ġbre": 1114,
      "any": 1115,
      "ĠIf": 1116,
      "Ġmatter": 1117,
      "no": 1118,
      "Ġround": 1119,
      "Ġwind": 1120,
      "iet": 1121,
      "Ġnear": 1122,
      "which": 1123,
      "Ġbetween": 1124,
      "Ġhard": 1125,
      "Ġ2": 1126,
      "Ġgirl": 1127,
      "Ġconf": 1128,
      "ins": 1129,
      "oice": 1130,
      "Ġamong": 1131,
      "vers": 1132,
      "Ġocc": 1133,
      "Ġdel": 1134,
      "Ġwhole": 1135,
      "Ġhour": 1136,
      "Ġeach": 1137,
      "Ġbecause": 1138,
      "Ġdoor": 1139,
      "ason": 1140,
      "Ġhome": 1141,
      "att": 1142,
      "Ġwoman": 1143,
      "rave": 1144,
      "aint": 1145,
      "ures": 1146,
      "pe": 1147,
      "now": 1148,
      "Ġgener": 1149,
      "atch": 1150,
      "Ġalso": 1151,
      "ĠThis": 1152,
      "Ġstre": 1153,
      "ĠTh": 1154,
      "Ġact": 1155,
      "du": 1156,
      "Ġcle": 1157,
      "Ġwhom": 1158,
      "Ġsil": 1159,
      "ents": 1160,
      "Ġname": 1161,
      "Ġco": 1162,
      "ars": 1163,
      "ĠThen": 1164,
      "Ġbro": 1165,
      "ute": 1166,
      "Ġnor": 1167,
      "men": 1168,
      "orning": 1169,
      "Ġkeep": 1170,
      "Ġpur": 1171,
      "ger": 1172,
      "entle": 1173,
      "az": 1174,
      "ĠĠĠĠĠ": 1175,
      "Ġcare": 1176,
      "Ġhum": 1177,
      "Ġbest": 1178,
      "ser": 1179,
      "ĠAs": 1180,
      "Ġboth": 1181,
      "'m": 1182,
      "Ġmean": 1183,
      "Ġmother": 1184,
      "stand": 1185,
      "ern": 1186,
      "Ġmin": 1187,
      "Ġpoint": 1188,
      "Ġcur": 1189,
      "Ġadd": 1190,
      "What": 1191,
      "enc": 1192,
      "ont": 1193,
      "him": 1194,
      "Ġpleas": 1195,
      "Ġdisc": 1196,
      "xt": 1197,
      "Ġsure": 1198,
      "oke": 1199,
      "Ġinter": 1200,
      "ating": 1201,
      "lish": 1202,
      "ĠĠĠĠĠĠ": 1203,
      "Ġalmost": 1204,
      "'ve": 1205,
      "aster": 1206,
      "Ġass": 1207,
      "Ġri": 1208,
      "owing": 1209,
      "ably": 1210,
      "br": 1211,
      "HE": 1212,
      "oubt": 1213,
      "She": 1214,
      "Ġste": 1215,
      "Ġless": 1216,
      "ĠMiss": 1217,
      "Ġche": 1218,
      "Ġdra": 1219,
      "ĠU": 1220,
      "ering": 1221,
      "rem": 1222,
      "day": 1223,
      "Ġhaving": 1224,
      "Ġpoor": 1225,
      "ph": 1226,
      "gr": 1227,
      "terest": 1228,
      "Ġdoes": 1229,
      "ately": 1230,
      "Ġstand": 1231,
      "rent": 1232,
      "Ġsmall": 1233,
      "Ġmyself": 1234,
      "oud": 1235,
      "spect": 1236,
      "ief": 1237,
      "Ġpresent": 1238,
      "Ġel": 1239,
      "Ġturned": 1240,
      "Ġhel": 1241,
      "Ġext": 1242,
      "Ġfelt": 1243,
      "Ġfact": 1244,
      "ene": 1245,
      "als": 1246,
      "Ġter": 1247,
      "ĠHis": 1248,
      "ken": 1249,
      "Ġcountry": 1250,
      "Ġsent": 1251,
      "Ġcalled": 1252,
      "Ġdays": 1253,
      "Ġfam": 1254,
      "amp": 1255,
      "Ġbus": 1256,
      "_,": 1257,
      "There": 1258,
      "fort": 1259,
      "Ġhor": 1260,
      "Ġrather": 1261,
      "Ġ[": 1262,
      "Ġdark": 1263,
      "ates": 1264,
      "ĠWhat": 1265,
      "fl": 1266,
      "Ġhear": 1267,
      "Ġwater": 1268,
      "Ġlo": 1269,
      "ung": 1270,
      "Ġunt": 1271,
      "inc": 1272,
      "Ġsince": 1273,
      "wered": 1274,
      "oney": 1275,
      "Ġopen": 1276,
      "Ġprop": 1277,
      "Ġbegan": 1278,
      "Ġtill": 1279,
      "Ġref": 1280,
      "estion": 1281,
      "Ġmorning": 1282,
      "Ġmo": 1283,
      "pro": 1284,
      "ains": 1285,
      "Ġtalk": 1286,
      "ton": 1287,
      "Ġmon": 1288,
      "In": 1289,
      "Ġland": 1290,
      "Ġgave": 1291,
      "ey": 1292,
      "Ġstood": 1293,
      "Ġwords": 1294,
      "range": 1295,
      "ĠThat": 1296,
      "Ġsk": 1297,
      "Ġadv": 1298,
      "Ġlar": 1299,
      "fully": 1300,
      "ĠJo": 1301,
      "We": 1302,
      "ubl": 1303,
      "Ġvis": 1304,
      "ĠAn": 1305,
      "Ġinde": 1306,
      "Ġev": 1307,
      "Ġbu": 1308,
      "Ġdear": 1309,
      "ĠFor": 1310,
      "Ġart": 1311,
      "what": 1312,
      "Ġhowever": 1313,
      "Ġhigh": 1314,
      "Ġanything": 1315,
      "ery": 1316,
      "have": 1317,
      "Ġvoice": 1318,
      "ĠBr": 1319,
      "Ġinc": 1320,
      "Ġdoubt": 1321,
      "Mr": 1322,
      "unt": 1323,
      "Ġnext": 1324,
      "Ġgentle": 1325,
      "cei": 1326,
      "king": 1327,
      "read": 1328,
      "aptain": 1329,
      "ments": 1330,
      "Ġbelieve": 1331,
      "ĠLord": 1332,
      "part": 1333,
      "ird": 1334,
      "eth": 1335,
      "No": 1336,
      "Ġanswered": 1337,
      "used": 1338,
      "Ġfore": 1339,
      "outh": 1340,
      "oul": 1341,
      "Ġcannot": 1342,
      "Ġbrought": 1343,
      "ude": 1344,
      "oun": 1345,
      "rist": 1346,
      "Ġwond": 1347,
      "Ġuse": 1348,
      "?'": 1349,
      "Ġneed": 1350,
      "Ġgone": 1351,
      "ressed": 1352,
      "Ġtaken": 1353,
      "ank": 1354,
      "ield": 1355,
      "she": 1356,
      "Ġnec": 1357,
      "Ġ18": 1358,
      "ants": 1359,
      "Ġperson": 1360,
      "ider": 1361,
      "ities": 1362,
      "----": 1363,
      "ten": 1364,
      "Ġherself": 1365,
      "iting": 1366,
      "That": 1367,
      "Ġfall": 1368,
      "arn": 1369,
      "ured": 1370,
      "ĠWhen": 1371,
      "Ġbeaut": 1372,
      "Ġadm": 1373,
      "Ġfull": 1374,
      "hn": 1375,
      "Ġindeed": 1376,
      "fect": 1377,
      "wor": 1378,
      "ĠSir": 1379,
      "aces": 1380,
      "._": 1381,
      "Ġinterest": 1382,
      "ĠSo": 1383,
      "ĠAt": 1384,
      "fic": 1385,
      "uring": 1386,
      "ee": 1387,
      "vel": 1388,
      "ets": 1389,
      "Ġspeak": 1390,
      "Ġpower": 1391,
      "Ġsir": 1392,
      "ention": 1393,
      "ash": 1394,
      "Ġbeh": 1395,
      "Ġsun": 1396,
      "ceed": 1397,
      "ĠMar": 1398,
      "Ġte": 1399,
      "Ġuntil": 1400,
      "Ġwhite": 1401,
      "Ġsim": 1402,
      "ub": 1403,
      "osition": 1404,
      "Ġlay": 1405,
      "ĠAr": 1406,
      "Ġtrue": 1407,
      "Ġfr": 1408,
      "Ġhope": 1409,
      "Ġide": 1410,
      "Ġhon": 1411,
      "Ġaw": 1412,
      "uck": 1413,
      "Ġhelp": 1414,
      "dden": 1415,
      "Ġcontin": 1416,
      "empt": 1417,
      "Ġleast": 1418,
      "bed": 1419,
      "Ġcond": 1420,
      "Ġrun": 1421,
      "ison": 1422,
      "they": 1423,
      "Well": 1424,
      "ĠTo": 1425,
      "Ġair": 1426,
      "Ġtri": 1427,
      "Ġperhaps": 1428,
      "ages": 1429,
      "ready": 1430,
      "iew": 1431,
      "ually": 1432,
      "cle": 1433,
      "Ġtogether": 1434,
      "aim": 1435,
      "eter": 1436,
      "Yes": 1437,
      "Oh": 1438,
      "ected": 1439,
      "ON": 1440,
      "side": 1441,
      "Ġstrong": 1442,
      "there": 1443,
      "ister": 1444,
      "Ġwife": 1445,
      "Ġes": 1446,
      "Ġsuff": 1447,
      "race": 1448,
      "ience": 1449,
      "Ġalong": 1450,
      "ached": 1451,
      "Ġcried": 1452,
      "Ġlau": 1453,
      "Ġothers": 1454,
      "Ġfire": 1455,
      "Ġcol": 1456,
      "Ġsort": 1457,
      "body": 1458,
      "Ġsudden": 1459,
      "wer": 1460,
      "ĠEnglish": 1461,
      "Ġlady": 1462,
      "Ġdiffe": 1463,
      "ances": 1464,
      "Ġspir": 1465,
      "ient": 1466,
      "ham": 1467,
      "Ġwhose": 1468,
      "Ġsle": 1469,
      "rence": 1470,
      "ides": 1471,
      "Ġgiven": 1472,
      "Ġplay": 1473,
      "ying": 1474,
      "plied": 1475,
      "ug": 1476,
      "cri": 1477,
      "undred": 1478,
      "Ġfour": 1479,
      "Ġmoney": 1480,
      "ended": 1481,
      "Ġhold": 1482,
      "Ġdeep": 1483,
      "uc": 1484,
      "where": 1485,
      "Ġlaw": 1486,
      "Ġform": 1487,
      "Ġpassed": 1488,
      "ident": 1489,
      "ĠAl": 1490,
      "Ġcase": 1491,
      "ific": 1492,
      "Ġfeet": 1493,
      "like": 1494,
      "Ġthemselves": 1495,
      "Ġremem": 1496,
      "Ġdr": 1497,
      "Ġblack": 1498,
      "Ġpret": 1499,
      "Ġsays": 1500,
      "Ġlarge": 1501,
      "Ġserv": 1502,
      "akes": 1503,
      "from": 1504,
      "Ġ3": 1505,
      "let": 1506,
      "Ġdire": 1507,
      "Ġreal": 1508,
      "ream": 1509,
      "though": 1510,
      "well": 1511,
      "Ġexc": 1512,
      "ines": 1513,
      "Ġlooking": 1514,
      "Ġdeath": 1515,
      "oor": 1516,
      "ĠOn": 1517,
      "ided": 1518,
      "Ġshort": 1519,
      "ĠNo": 1520,
      "Ġleave": 1521,
      "ship": 1522,
      "ley": 1523,
      "Ġwish": 1524,
      "Ġreason": 1525,
      "iously": 1526,
      "Ġsea": 1527,
      "Ġfur": 1528,
      "Ġalone": 1529,
      "Ġbehind": 1530,
      "ane": 1531,
      "Ġaff": 1532,
      "lect": 1533,
      "They": 1534,
      "Ġquestion": 1535,
      "this": 1536,
      "Ġ*": 1537,
      "ught": 1538,
      "Ġdead": 1539,
      "ceived": 1540,
      "Ġpri": 1541,
      "ards": 1542,
      "Ġfa": 1543,
      "ĠPr": 1544,
      "Ġstart": 1545,
      "Ġbook": 1546,
      "aced": 1547,
      "Ġclose": 1548,
      "Ġreally": 1549,
      "'re": 1550,
      "IN": 1551,
      "Ġprom": 1552,
      "ative": 1553,
      "II": 1554,
      "Ġopp": 1555,
      "Ġgre": 1556,
      "use": 1557,
      "Ġwhy": 1558,
      "enty": 1559,
      "ĠWh": 1560,
      "eared": 1561,
      "oc": 1562,
      "Ġsing": 1563,
      "Ġspec": 1564,
      "Ġabove": 1565,
      "son": 1566,
      "Ġstru": 1567,
      "Ġsound": 1568,
      "Then": 1569,
      "ring": 1570,
      "ote": 1571,
      "HA": 1572,
      "!'": 1573,
      "Ġmet": 1574,
      "Ġfear": 1575,
      "Ġunderstand": 1576,
      "would": 1577,
      "Ġwhether": 1578,
      "Ġfin": 1579,
      "aven": 1580,
      "Ġpol": 1581,
      "tered": 1582,
      "ued": 1583,
      "eng": 1584,
      "Ġswe": 1585,
      "Ġeas": 1586,
      "erc": 1587,
      "Ġreplied": 1588,
      "alked": 1589,
      "them": 1590,
      "ek": 1591,
      "ility": 1592,
      "Ġoften": 1593,
      "ublic": 1594,
      "iful": 1595,
      "rying": 1596,
      "Ġground": 1597,
      "form": 1598,
      "Ġbed": 1599,
      "Ġcir": 1600,
      "were": 1601,
      "illed": 1602,
      "ah": 1603,
      "Ġhundred": 1604,
      "ural": 1605,
      "Ġdro": 1606,
      "--\"": 1607,
      "Ġabs": 1608,
      "orrow": 1609,
      "Ġill": 1610,
      "Ġknown": 1611,
      "ĠJohn": 1612,
      "This": 1613,
      "Ġinv": 1614,
      "Ġdri": 1615,
      "acter": 1616,
      "Ġmis": 1617,
      "Ġtown": 1618,
      ".]": 1619,
      "ĠChrist": 1620,
      "aughter": 1621,
      "Ġmanner": 1622,
      "Ġnum": 1623,
      "Ġbrother": 1624,
      "Ġbur": 1625,
      "aring": 1626,
      "iled": 1627,
      "Ġcoming": 1628,
      "iles": 1629,
      "Ġtruth": 1630,
      "Ġed": 1631,
      "sc": 1632,
      "00": 1633,
      "Ġletter": 1634,
      "Ġsign": 1635,
      "Ġlad": 1636,
      "Ġalready": 1637,
      "ames": 1638,
      "ĠAll": 1639,
      "ny": 1640,
      "Ġmeet": 1641,
      "ts": 1642,
      "Ġwithin": 1643,
      "If": 1644,
      "TER": 1645,
      "Ġnature": 1646,
      "Ġtowards": 1647,
      "oint": 1648,
      "Ġitself": 1649,
      "Ġson": 1650,
      "ats": 1651,
      "Ġfriends": 1652,
      ".--": 1653,
      "Ġelse": 1654,
      "ution": 1655,
      "Ġdep": 1656,
      "Ġsy": 1657,
      "Ġsubject": 1658,
      "AN": 1659,
      "Ġran": 1660,
      "Ġexpl": 1661,
      "Ġorder": 1662,
      "overed": 1663,
      "room": 1664,
      "Ġfair": 1665,
      "Ġlive": 1666,
      "Ġthus": 1667,
      "ev": 1668,
      "Ġmeans": 1669,
      "Ġtimes": 1670,
      "head": 1671,
      "),": 1672,
      "itted": 1673,
      "ĠInd": 1674,
      "tr": 1675,
      "Ġcor": 1676,
      "Ġmod": 1677,
      "str": 1678,
      "Ġsecond": 1679,
      "aj": 1680,
      "ession": 1681,
      "âĢľ": 1682,
      "Ġthou": 1683,
      "ĠHow": 1684,
      "ism": 1685,
      "their": 1686,
      "AR": 1687,
      "ney": 1688,
      "Ġeffect": 1689,
      "Ġsuppose": 1690,
      "Ġobser": 1691,
      "Ġship": 1692,
      "Ġyear": 1693,
      "ousand": 1694,
      "gin": 1695,
      "bit": 1696,
      "urch": 1697,
      "Ġbusiness": 1698,
      "Ġlost": 1699,
      "asion": 1700,
      "Ġwonder": 1701,
      "ead": 1702,
      "Ġused": 1703,
      "night": 1704,
      "Ġnecess": 1705,
      "iter": 1706,
      "ature": 1707,
      "Ġsoul": 1708,
      "Ġreturned": 1709,
      "Ġclear": 1710,
      "Ġins": 1711,
      "uff": 1712,
      "Ġask": 1713,
      "ouble": 1714,
      "Ġmere": 1715,
      "ĠKing": 1716,
      "Ġtre": 1717,
      "ony": 1718,
      "ĠLady": 1719,
      "Ġord": 1720,
      "idence": 1721,
      "who": 1722,
      "hil": 1723,
      "Ġten": 1724,
      "veral": 1725,
      "under": 1726,
      "Ġbring": 1727,
      "âĢĿ": 1728,
      "Ġquiet": 1729,
      "ĠMy": 1730,
      "Ġeye": 1731,
      "ĠHer": 1732,
      "Ġeither": 1733,
      "Ġappear": 1734,
      "EN": 1735,
      "Ġhuman": 1736,
      "Ġwalk": 1737,
      "cum": 1738,
      "Ġbad": 1739,
      "how": 1740,
      "Ġbody": 1741,
      "Ġhur": 1742,
      "ĠSp": 1743,
      "ury": 1744,
      "co": 1745,
      "Ġkept": 1746,
      "Ġwild": 1747,
      "ingly": 1748,
      "icular": 1749,
      "Ġpap": 1750,
      "Ġheld": 1751,
      "Ġpar": 1752,
      "ety": 1753,
      "Ġchildren": 1754,
      "Ġcap": 1755,
      "ster": 1756,
      "Ġperfect": 1757,
      "Ġsense": 1758,
      "rench": 1759,
      "Ġlow": 1760,
      "Ġobject": 1761,
      "Ġdef": 1762,
      "band": 1763,
      "ression": 1764,
      "par": 1765,
      "do": 1766,
      "will": 1767,
      "Ġwood": 1768,
      "ĠIs": 1769,
      "_.": 1770,
      "Ġlea": 1771,
      "rel": 1772,
      "As": 1773,
      "Ġsix": 1774,
      "Ġbar": 1775,
      "ax": 1776,
      "itting": 1777,
      "Ġsight": 1778,
      "ized": 1779,
      "ising": 1780,
      "Ġred": 1781,
      "Ġsum": 1782,
      "ĠCl": 1783,
      "Ġconsider": 1784,
      "ians": 1785,
      "Ġanswer": 1786,
      "Ġwall": 1787,
      "look": 1788,
      "ped": 1789,
      "ush": 1790,
      "Ġstrange": 1791,
      "ĠTHE": 1792,
      "Ġwon": 1793,
      "Ġarm": 1794,
      "Ġthy": 1795,
      "ĠEngland": 1796,
      "ĠNow": 1797,
      "Ġdev": 1798,
      "Ġlist": 1799,
      "ĠBe": 1800,
      "Ġspirit": 1801,
      "Ġstate": 1802,
      "Ġgeneral": 1803,
      "ially": 1804,
      "Ġacross": 1805,
      "cap": 1806,
      "Ġfellow": 1807,
      "Ġrespect": 1808,
      "Ġbes": 1809,
      "une": 1810,
      "My": 1811,
      "Ġfoot": 1812,
      "Ġking": 1813,
      "dis": 1814,
      "Ġwomen": 1815,
      "Ġfamily": 1816,
      "OR": 1817,
      "Ġhorse": 1818,
      "ination": 1819,
      "Ġview": 1820,
      "Ġvar": 1821,
      "Ġshow": 1822,
      "Ġcommon": 1823,
      "Ġpossible": 1824,
      "ices": 1825,
      "airs": 1826,
      "Ġmaking": 1827,
      "Ġinf": 1828,
      "Ġdeal": 1829,
      "mon": 1830,
      "uss": 1831,
      "Ġpat": 1832,
      "ES": 1833,
      "Ġcharacter": 1834,
      "Ġir": 1835,
      "isf": 1836,
      "iar": 1837,
      "Ġfort": 1838,
      "meric": 1839,
      "Ġ.": 1840,
      "Ġlead": 1841,
      "Ġseems": 1842,
      "Ġsch": 1843,
      "Ġevening": 1844,
      "Ġable": 1845,
      "Ġearth": 1846,
      "rie": 1847,
      "Ġdem": 1848,
      "Ġpain": 1849,
      "When": 1850,
      "Ġought": 1851,
      "Ġpast": 1852,
      "ned": 1853,
      "Ġprof": 1854,
      "Ġbit": 1855,
      "usband": 1856,
      "Ġbecome": 1857,
      "Ġdiffic": 1858,
      "ĠSc": 1859,
      "Ġmem": 1860,
      "aged": 1861,
      "Ġseveral": 1862,
      "ones": 1863,
      "owers": 1864,
      "light": 1865,
      "Ġglad": 1866,
      "val": 1867,
      "Ġcut": 1868,
      "Ġmount": 1869,
      "inct": 1870,
      "Ġdidn": 1871,
      "antly": 1872,
      "Ġtherefore": 1873,
      "ric": 1874,
      "anger": 1875,
      "Ġidea": 1876,
      "Ġmid": 1877,
      "arent": 1878,
      "ĠHar": 1879,
      "Ġtou": 1880,
      "Ġthousand": 1881,
      "Ġra": 1882,
      "Ġexcept": 1883,
      "Ġsit": 1884,
      "ĠQ": 1885,
      "Ġfree": 1886,
      "Ġdecl": 1887,
      "Ġquick": 1888,
      "off": 1889,
      "Ġslow": 1890,
      "dle": 1891,
      "Ġfive": 1892,
      "alth": 1893,
      "Ġconc": 1894,
      "Ġblood": 1895,
      "ctor": 1896,
      "ches": 1897,
      "Ġut": 1898,
      "ondon": 1899,
      "Ġready": 1900,
      "So": 1901,
      "Ġroad": 1902,
      "bo": 1903,
      "ces": 1904,
      "Ġarri": 1905,
      "cons": 1906,
      "Ġbegin": 1907,
      "Ġye": 1908,
      "Ġaccount": 1909,
      "Ġmist": 1910,
      "Ġdifferent": 1911,
      "when": 1912,
      "Ġstory": 1913,
      "Ġbecame": 1914,
      "ement": 1915,
      "utes": 1916,
      "Ġtable": 1917,
      "some": 1918,
      "ives": 1919,
      "Ġcold": 1920,
      "Ġprob": 1921,
      "mp": 1922,
      "Ġca": 1923,
      "Ġbig": 1924,
      "Ġsurpr": 1925,
      "hand": 1926,
      "tern": 1927,
      "Ġexcl": 1928,
      "Ġsleep": 1929,
      "Ġappro": 1930,
      "Ġspoke": 1931,
      "more": 1932,
      "iment": 1933,
      "ality": 1934,
      "Ġjud": 1935,
      "ges": 1936,
      "cious": 1937,
      "bled": 1938,
      "ots": 1939,
      "pose": 1940,
      "Ġremember": 1941,
      "Ġi": 1942,
      "ased": 1943,
      "Ġworth": 1944,
      "itude": 1945,
      "Ġrose": 1946,
      "go": 1947,
      "ĠWith": 1948,
      "uthor": 1949,
      "Ġprodu": 1950,
      "Ġaround": 1951,
      "Ġeng": 1952,
      "To": 1953,
      "Ġgold": 1954,
      "Ġwatch": 1955,
      "Now": 1956,
      "ĠĠĠĠĠĠĠĠĠĠĠĠĠĠĠĠĠĠĠĠĠĠĠĠ": 1957,
      "Ġ4": 1958,
      "iver": 1959,
      "Ġequ": 1960,
      "Ġbreak": 1961,
      "ĠX": 1962,
      "yond": 1963,
      "Ġstep": 1964,
      "Th": 1965,
      "fra": 1966,
      "Ġparty": 1967,
      "Ġfav": 1968,
      "rank": 1969,
      "Ġforg": 1970,
      "iff": 1971,
      "Ġfollowed": 1972,
      "come": 1973,
      "Ġgentleman": 1974,
      "Ġtra": 1975,
      "Ġsucc": 1976,
      "Ġpay": 1977,
      "ours": 1978,
      "inter": 1979,
      "orge": 1980,
      "Why": 1981,
      "Ġdraw": 1982,
      "Ġest": 1983,
      "been": 1984,
      "ths": 1985,
      "Ġsto": 1986,
      "Ġfig": 1987,
      "ledge": 1988,
      "Ġrock": 1989,
      "ift": 1990,
      "arch": 1991,
      "orm": 1992,
      "Ġpretty": 1993,
      "ĠOf": 1994,
      "Ġarms": 1995,
      "Ġpublic": 1996,
      "Ġduring": 1997,
      "imp": 1998,
      "Ġlearn": 1999,
      "Ġimag": 2000,
      "How": 2001,
      "Ġdut": 2002,
      "Ġfeeling": 2003,
      "attle": 2004,
      "Ġheav": 2005,
      "ĠNew": 2006,
      "can": 2007,
      "Ġce": 2008,
      "Ġcent": 2009,
      "els": 2010,
      "Ġfight": 2011,
      "Ġcross": 2012,
      "riage": 2013,
      "Ġfine": 2014,
      "ĠFrench": 2015,
      "ĠGe": 2016,
      "At": 2017,
      "Ġbeautiful": 2018,
      "Ġforward": 2019,
      "medi": 2020,
      "pre": 2021,
      "sm": 2022,
      "reed": 2023,
      "Ġsuddenly": 2024,
      "Ġhusband": 2025,
      "Ġoffic": 2026,
      "Ġappeared": 2027,
      "ĠBy": 2028,
      "Ġstri": 2029,
      "Ġstay": 2030,
      "ĠAmeric": 2031,
      "Ġconst": 2032,
      "Ġthee": 2033,
      "Ġparticular": 2034,
      "Ġmur": 2035,
      "Ġstud": 2036,
      "ging": 2037,
      ").": 2038,
      "Ġdirect": 2039,
      "CHA": 2040,
      "gl": 2041,
      "ancy": 2042,
      "Wh": 2043,
      "ĠDo": 2044,
      "Ġcast": 2045,
      "Ġline": 2046,
      "Ġoccasion": 2047,
      "Ġcommand": 2048,
      "ump": 2049,
      "Ġstra": 2050,
      "Ġself": 2051,
      "Ġadded": 2052,
      "Ġmove": 2053,
      "eal": 2054,
      "gy": 2055,
      "Ġtem": 2056,
      "resent": 2057,
      "ior": 2058,
      "ists": 2059,
      "ament": 2060,
      "Ġhair": 2061,
      "inner": 2062,
      "Ġele": 2063,
      "Ġquar": 2064,
      "Ġscar": 2065,
      "ĠUn": 2066,
      "oe": 2067,
      "ract": 2068,
      "aimed": 2069,
      "cumst": 2070,
      "Ġdoing": 2071,
      "cour": 2072,
      "ĠNor": 2073,
      "Ġport": 2074,
      "Ġdream": 2075,
      "ously": 2076,
      "For": 2077,
      "ĠLondon": 2078,
      "Ġcontinued": 2079,
      "fraid": 2080,
      "Ġsqu": 2081,
      "ushed": 2082,
      "ounded": 2083,
      "inary": 2084,
      "wo": 2085,
      "Ġexam": 2086,
      "could": 2087,
      "PTER": 2088,
      "pper": 2089,
      "resh": 2090,
      "ĠWill": 2091,
      "idge": 2092,
      "ĠCol": 2093,
      "otion": 2094,
      "irt": 2095,
      "house": 2096,
      "Ġcomple": 2097,
      "Ġled": 2098,
      "ĠCaptain": 2099,
      "gs": 2100,
      "Not": 2101,
      "Ġhill": 2102,
      "Ġmus": 2103,
      "Ġcal": 2104,
      "Ġrequ": 2105,
      "Ġsend": 2106,
      "essed": 2107,
      "Ġtaking": 2108,
      "ĠBl": 2109,
      "Ġsoci": 2110,
      "Ġlate": 2111,
      "ls": 2112,
      "âĢĶ": 2113,
      "ĠTom": 2114,
      "Ġund": 2115,
      "together": 2116,
      "Ġsold": 2117,
      "ilt": 2118,
      "rupt": 2119,
      "itten": 2120,
      "Ġcomes": 2121,
      "Ġhappy": 2122,
      "Ġsoft": 2123,
      "Ġsometimes": 2124,
      "Ġaffect": 2125,
      "Ġbeyond": 2126,
      "Ġmine": 2127,
      "ified": 2128,
      "ler": 2129,
      "ĠĠĠĠĠĠĠ": 2130,
      "Ġfront": 2131,
      "ald": 2132,
      "Ġregard": 2133,
      "Ġsecret": 2134,
      "ening": 2135,
      "aining": 2136,
      "Ġru": 2137,
      "gu": 2138,
      "Ġlaugh": 2139,
      "Ġcertainly": 2140,
      "Ġdanger": 2141,
      "Ġdiv": 2142,
      "Ġhours": 2143,
      "Ġhot": 2144,
      "Ġbright": 2145,
      "Ġve": 2146,
      "bert": 2147,
      "ining": 2148,
      "ĠOne": 2149,
      "Ġchange": 2150,
      "Ġacqu": 2151,
      "ics": 2152,
      "Ġcoll": 2153,
      "Ġopin": 2154,
      "Ġnone": 2155,
      "ounds": 2156,
      "Ġplain": 2157,
      "uct": 2158,
      "cont": 2159,
      "On": 2160,
      "Ġbene": 2161,
      "Ġchief": 2162,
      "ossible": 2163,
      "usion": 2164,
      "Ġbreat": 2165,
      "isted": 2166,
      "Ġcarried": 2167,
      "ron": 2168,
      "vern": 2169,
      "Ġanim": 2170,
      "Ġvisit": 2171,
      "Ġfurther": 2172,
      "Ġimport": 2173,
      "sha": 2174,
      "Ġvill": 2175,
      "Ġwanted": 2176,
      "Ġriver": 2177,
      "Ġprov": 2178,
      "oured": 2179,
      "Ġyourself": 2180,
      "Ġenem": 2181,
      "Ġdet": 2182,
      "CHAPTER": 2183,
      "iece": 2184,
      "ĠCom": 2185,
      "Ġsn": 2186,
      "dd": 2187,
      ".,": 2188,
      "Ġeverything": 2189,
      "bers": 2190,
      "reg": 2191,
      "Ġdisp": 2192,
      "irm": 2193,
      "anced": 2194,
      "ize": 2195,
      "rance": 2196,
      "Ġwrong": 2197,
      "ror": 2198,
      "Ġtwenty": 2199,
      "Ġfaith": 2200,
      "Ġnatural": 2201,
      "Ġlonger": 2202,
      "has": 2203,
      "Ġhop": 2204,
      "sequ": 2205,
      "Ġtrust": 2206,
      "Ġexper": 2207,
      "Ġfail": 2208,
      "Ġdaughter": 2209,
      "Ġsaying": 2210,
      "Ġboat": 2211,
      "ray": 2212,
      "Ġboys": 2213,
      "che": 2214,
      "IS": 2215,
      "Ġreached": 2216,
      "ĠNot": 2217,
      "itions": 2218,
      "Ġmaster": 2219,
      "ĠDe": 2220,
      "after": 2221,
      "ested": 2222,
      "Ġsatisf": 2223,
      "iam": 2224,
      "que": 2225,
      "Ġanx": 2226,
      "Ġval": 2227,
      "Ġsol": 2228,
      "Ġtry": 2229,
      "exp": 2230,
      "Ġnearly": 2231,
      "Ġtried": 2232,
      "Ġhast": 2233,
      "Ġnumber": 2234,
      "Ġescap": 2235,
      "Ġwindow": 2236,
      "Ġafraid": 2237,
      "Ġchance": 2238,
      "ĠOF": 2239,
      "Ġreceived": 2240,
      "arr": 2241,
      "St": 2242,
      "Ġcomfort": 2243,
      "Ġdest": 2244,
      "Ġsweet": 2245,
      "Ġpict": 2246,
      "Ġcity": 2247,
      "Ġcause": 2248,
      "Ġtend": 2249,
      "min": 2250,
      "should": 2251,
      "Ġauthor": 2252,
      "Ġdelight": 2253,
      "Ġcreat": 2254,
      "Ġage": 2255,
      "Ġforce": 2256,
      "ius": 2257,
      "Ġsett": 2258,
      "ĠChar": 2259,
      "ically": 2260,
      "Ġcompan": 2261,
      "oly": 2262,
      "cend": 2263,
      "Ġsad": 2264,
      "lled": 2265,
      "ceive": 2266,
      "Ġhardly": 2267,
      "Ġcorn": 2268,
      "ength": 2269,
      "hard": 2270,
      "Ġschool": 2271,
      "Ġlater": 2272,
      "ĠLe": 2273,
      "iol": 2274,
      "Ġshad": 2275,
      "pec": 2276,
      "then": 2277,
      "Ġposition": 2278,
      "Ġsail": 2279,
      "your": 2280,
      "about": 2281,
      "Ġearly": 2282,
      "ection": 2283,
      "Ġminutes": 2284,
      "Ġwalked": 2285,
      "Ġattempt": 2286,
      "Ġsuccess": 2287,
      "kes": 2288,
      "ask": 2289,
      "Ġbear": 2290,
      "Ġwhis": 2291,
      "bec": 2292,
      "set": 2293,
      "joy": 2294,
      "Ġfool": 2295,
      "ĠPar": 2296,
      "ences": 2297,
      "ues": 2298,
      "ustom": 2299,
      "Ġopened": 2300,
      "Ġremark": 2301,
      "Ġtrouble": 2302,
      "Ġslight": 2303,
      "Ġago": 2304,
      "ume": 2305,
      "Ġjo": 2306,
      "Ġliving": 2307,
      "Ġpriv": 2308,
      "Ġsilence": 2309,
      "Ġwit": 2310,
      "Ġsugg": 2311,
      "said": 2312,
      "Ġmag": 2313,
      "Ġpray": 2314,
      "io": 2315,
      "onel": 2316,
      "hood": 2317,
      "Ġexpect": 2318,
      "ighb": 2319,
      "Ġfast": 2320,
      "rible": 2321,
      "ager": 2322,
      "Ġpract": 2323,
      "Ġchair": 2324,
      "erv": 2325,
      "ission": 2326,
      "flu": 2327,
      "ĠEd": 2328,
      "wise": 2329,
      "bs": 2330,
      "Ġforth": 2331,
      "Ġhat": 2332,
      "acy": 2333,
      "Ġsister": 2334,
      "Ġsmile": 2335,
      "icked": 2336,
      "Ġsuper": 2337,
      "Ġinqu": 2338,
      "Ġnecessary": 2339,
      "cent": 2340,
      "ries": 2341,
      "Ġmouth": 2342,
      "kn": 2343,
      "Ġspo": 2344,
      "Ġtrave": 2345,
      "bel": 2346,
      "into": 2347,
      "eed": 2348,
      "Do": 2349,
      "Ġeff": 2350,
      "....": 2351,
      "Ġhist": 2352,
      "ming": 2353,
      "angu": 2354,
      "Ġpurpose": 2355,
      "uke": 2356,
      "Ġfif": 2357,
      "oose": 2358,
      "rit": 2359,
      "olute": 2360,
      "ĠWhy": 2361,
      "iding": 2362,
      "Ġwat": 2363,
      "ĠĠĠĠĠĠĠĠĠĠĠĠĠĠĠĠĠĠĠĠĠĠĠĠĠĠĠĠĠĠĠĠ": 2364,
      "Ġ5": 2365,
      "Ġlaid": 2366,
      "Ġprot": 2367,
      "Ġmad": 2368,
      "count": 2369,
      "Ġvol": 2370,
      "Ġmeant": 2371,
      "ixed": 2372,
      "little": 2373,
      "ively": 2374,
      "again": 2375,
      "fer": 2376,
      "Ġlab": 2377,
      "ghed": 2378,
      "ply": 2379,
      "pping": 2380,
      "Ġmiles": 2381,
      "just": 2382,
      "dom": 2383,
      "ech": 2384,
      "ogn": 2385,
      "orses": 2386,
      "time": 2387,
      "Ġentered": 2388,
      "ĠHere": 2389,
      "ĠLet": 2390,
      "LE": 2391,
      "Ġpleasure": 2392,
      "Ġ17": 2393,
      "Ġcircumst": 2394,
      "rough": 2395,
      "Ġsens": 2396,
      "Ġpal": 2397,
      "Ġtrans": 2398,
      "Ġscarce": 2399,
      "oman": 2400,
      "cell": 2401,
      "stood": 2402,
      "Ġdistance": 2403,
      "ases": 2404,
      "asure": 2405,
      "Ġgrave": 2406,
      "Ġthinking": 2407,
      "Ġduty": 2408,
      "Ġbird": 2409,
      "hel": 2410,
      "iers": 2411,
      "upon": 2412,
      "than": 2413,
      "Ġentire": 2414,
      "ĠGeorge": 2415,
      "ike": 2416,
      "Ġlength": 2417,
      "rowd": 2418,
      "Ġyes": 2419,
      "Ġaccom": 2420,
      "Ġslowly": 2421,
      "Ġheavy": 2422,
      "vol": 2423,
      "eterm": 2424,
      "Ġgetting": 2425,
      "while": 2426,
      "Ġneither": 2427,
      "Ġdesp": 2428,
      "ĠCar": 2429,
      "Ġpeace": 2430,
      "Ġbroken": 2431,
      "Ġweek": 2432,
      "Ġsave": 2433,
      "ze": 2434,
      "ops": 2435,
      "Ġprinc": 2436,
      "Ġlips": 2437,
      "Ġknows": 2438,
      "Ġda": 2439,
      "Ġtro": 2440,
      "sem": 2441,
      "ency": 2442,
      "Ġlived": 2443,
      "Ġdescri": 2444,
      "ngth": 2445,
      "Ġblue": 2446,
      "ĠWell": 2447,
      "des": 2448,
      "arden": 2449,
      "resp": 2450,
      "Ġtreat": 2451,
      "Ġlord": 2452,
      "Ġimmedi": 2453,
      "ference": 2454,
      "Ġexclaimed": 2455,
      "Ġprobably": 2456,
      "face": 2457,
      "Ġstanding": 2458,
      "ĠPro": 2459,
      "raw": 2460,
      "Ġgrand": 2461,
      "Ġtrees": 2462,
      "ustr": 2463,
      "Ġstruck": 2464,
      "Ġdisapp": 2465,
      "oom": 2466,
      "Ġjoy": 2467,
      "Ġexact": 2468,
      "Ġav": 2469,
      "chan": 2470,
      "Ġhappened": 2471,
      "amed": 2472,
      "bet": 2473,
      "bling": 2474,
      "gan": 2475,
      "ĠOr": 2476,
      "aded": 2477,
      "ĠRe": 2478,
      "ole": 2479,
      "Ġproceed": 2480,
      "Ġpost": 2481,
      "Ġtop": 2482,
      "Is": 2483,
      "ching": 2484,
      "Ġaccord": 2485,
      "Ġsafe": 2486,
      "Ġyouth": 2487,
      "great": 2488,
      "Ġdie": 2489,
      "All": 2490,
      "Ġeasy": 2491,
      "Ġver": 2492,
      "Ġchurch": 2493,
      "Ġmor": 2494,
      "eneral": 2495,
      "AT": 2496,
      "olog": 2497,
      "Ġcompany": 2498,
      "iling": 2499,
      "An": 2500,
      "certain": 2501,
      "comp": 2502,
      "Ġgreen": 2503,
      "comm": 2504,
      "ĠGer": 2505,
      "Ġrepe": 2506,
      "Ġopinion": 2507,
      "long": 2508,
      "Ġpoet": 2509,
      "Ġmakes": 2510,
      "before": 2511,
      "Ġobl": 2512,
      "rang": 2513,
      "Ġeight": 2514,
      "aff": 2515,
      "AL": 2516,
      "Ġdied": 2517,
      "cha": 2518,
      "Ġdrew": 2519,
      "ires": 2520,
      "Ġgun": 2521,
      "Ġweak": 2522,
      "OU": 2523,
      "ĠDick": 2524,
      "Ġshar": 2525,
      "Ġdress": 2526,
      "Ġdinner": 2527,
      "Ġknowledge": 2528,
      "ises": 2529,
      "Ġconv": 2530,
      "Ġprep": 2531,
      "Ġstopped": 2532,
      "Ġprison": 2533,
      "noon": 2534,
      "urs": 2535,
      "ays": 2536,
      "Ġwritten": 2537,
      "Ġsal": 2538,
      "irty": 2539,
      "oes": 2540,
      "Ġclass": 2541,
      "eks": 2542,
      "osp": 2543,
      "athe": 2544,
      "ories": 2545,
      "ma": 2546,
      "Ġremained": 2547,
      "ĠMary": 2548,
      "Ġincl": 2549,
      "Ġdeg": 2550,
      "ivid": 2551,
      "Ġlie": 2552,
      "Ġgovern": 2553,
      "Ġcaptain": 2554,
      "ples": 2555,
      "Ġalthough": 2556,
      "Ġcry": 2557,
      "ashion": 2558,
      "Ġheaven": 2559,
      "Ġexist": 2560,
      "Ġwrite": 2561,
      "ellow": 2562,
      "THE": 2563,
      "ored": 2564,
      "eness": 2565,
      "ĠBar": 2566,
      "nest": 2567,
      "Ġaccept": 2568,
      "ĠOh": 2569,
      "Ġhig": 2570,
      "Ġlaughed": 2571,
      "ext": 2572,
      "ulty": 2573,
      "Ġpen": 2574,
      "Ġtor": 2575,
      "ĠThese": 2576,
      "Ġfield": 2577,
      "Ġrich": 2578,
      "Ġbott": 2579,
      "Ġann": 2580,
      "Ġneighb": 2581,
      "place": 2582,
      "wood": 2583,
      "Ġmention": 2584,
      "ĠDr": 2585,
      "fast": 2586,
      ".)": 2587,
      "oved": 2588,
      "Ġsitting": 2589,
      "Ġservice": 2590,
      "Ġconvers": 2591,
      "Ġtone": 2592,
      "na": 2593,
      "Ġcompl": 2594,
      "Ġmark": 2595,
      "Ġcrowd": 2596,
      "Ġcourt": 2597,
      "dy": 2598,
      "Ġmerc": 2599,
      "pecially": 2600,
      "ĠSe": 2601,
      "ĠAd": 2602,
      "Ġpaper": 2603,
      "ĠBrit": 2604,
      "Ġjour": 2605,
      "arm": 2606,
      "Ġsilent": 2607,
      "Ġbelow": 2608,
      "Ġbuild": 2609,
      "Ġwhatever": 2610,
      "With": 2611,
      "Ġplan": 2612,
      "Ġresult": 2613,
      "Ġori": 2614,
      "unity": 2615,
      "rief": 2616,
      "Ġusual": 2617,
      "Ġshout": 2618,
      "ina": 2619,
      "Ġlatter": 2620,
      "requ": 2621,
      "Ġfollowing": 2622,
      "Ġcaught": 2623,
      "Ġhorses": 2624,
      "know": 2625,
      "Ġstraight": 2626,
      "Ġang": 2627,
      "mn": 2628,
      "arer": 2629,
      "aul": 2630,
      "Of": 2631,
      "aching": 2632,
      "ĠCon": 2633,
      "Ġisland": 2634,
      "Ġhonour": 2635,
      "road": 2636,
      "Ġintell": 2637,
      "ĠAfter": 2638,
      "Ġgall": 2639,
      "ĠFl": 2640,
      "Ġproper": 2641,
      "Ġcamp": 2642,
      "Ġwis": 2643,
      "Ġdifficult": 2644,
      "Ġ6": 2645,
      "Ġshore": 2646,
      "ĠGr": 2647,
      "ibly": 2648,
      "Ġfigure": 2649,
      "action": 2650,
      "happ": 2651,
      "see": 2652,
      "rill": 2653,
      ";--": 2654,
      "Ġthoughts": 2655,
      "new": 2656,
      "Ġtrem": 2657,
      "Ġstrength": 2658,
      "Ġforget": 2659,
      "iety": 2660,
      "arrow": 2661,
      "ision": 2662,
      "ploy": 2663,
      "Ġfut": 2664,
      "Ġdesire": 2665,
      "orry": 2666,
      "Ġfresh": 2667,
      "Ġmoved": 2668,
      "Ġbeauty": 2669,
      "Ġgrow": 2670,
      "Ġlim": 2671,
      "Ġbroke": 2672,
      "Ġwarm": 2673,
      "Ġbound": 2674,
      "Ġenjoy": 2675,
      "never": 2676,
      "ocked": 2677,
      "Ġfollow": 2678,
      "Ġconcl": 2679,
      "Ġmed": 2680,
      "Ġwait": 2681,
      "Ġwide": 2682,
      "Ġboard": 2683,
      "Ġgrew": 2684,
      "Ġgaz": 2685,
      "bur": 2686,
      "ston": 2687,
      "Ġthick": 2688,
      "sec": 2689,
      "IT": 2690,
      "ital": 2691,
      "Ġtree": 2692,
      "Ġloved": 2693,
      "bered": 2694,
      "morrow": 2695,
      "gar": 2696,
      "osing": 2697,
      "Ġden": 2698,
      "Ġformer": 2699,
      "ouses": 2700,
      "Ġcarry": 2701,
      "orted": 2702,
      "only": 2703,
      "iced": 2704,
      "Ġdemand": 2705,
      "Ġnote": 2706,
      "ĠâĢľ": 2707,
      "Ġshowed": 2708,
      "Ġspot": 2709,
      "Ġfing": 2710,
      "Ġeat": 2711,
      "himself": 2712,
      "Ġsingle": 2713,
      "ivers": 2714,
      "Ġdrink": 2715,
      "Ġsomewhat": 2716,
      "vere": 2717,
      "Ġgoes": 2718,
      "thought": 2719,
      "down": 2720,
      "ords": 2721,
      "iod": 2722,
      "ivil": 2723,
      "Ġdeterm": 2724,
      "Ġnews": 2725,
      "Ġenemy": 2726,
      "Ġdread": 2727,
      "Ġseeing": 2728,
      "Ġinflu": 2729,
      "bles": 2730,
      "arked": 2731,
      "erhaps": 2732,
      "Ġgreater": 2733,
      "othes": 2734,
      "Ġoccup": 2735,
      "Ġmonths": 2736,
      "Ġrelig": 2737,
      "Ġplaced": 2738,
      "Ġattack": 2739,
      "hys": 2740,
      "Ġtoward": 2741,
      "teen": 2742,
      "car": 2743,
      "Mrs": 2744,
      "ĠSam": 2745,
      "Ġorigin": 2746,
      "Ġmarried": 2747,
      "Ġburn": 2748,
      "RE": 2749,
      "Ġbelong": 2750,
      "Ġinstead": 2751,
      "Ġimm": 2752,
      "ĠDon": 2753,
      "Ġattention": 2754,
      "oon": 2755,
      "zen": 2756,
      "esty": 2757,
      "Ġstone": 2758,
      "sy": 2759,
      "Ġcab": 2760,
      "cient": 2761,
      "Ġexpected": 2762,
      "Ġcontr": 2763,
      "Ġpolit": 2764,
      "unk": 2765,
      "Ġcre": 2766,
      "ork": 2767,
      "ending": 2768,
      "Ġstarted": 2769,
      "Ġlangu": 2770,
      "Ġdog": 2771,
      "uliar": 2772,
      "Ġpresence": 2773,
      "Ġarmy": 2774,
      "Ġpull": 2775,
      "every": 2776,
      "even": 2777,
      "mit": 2778,
      "Ġmerely": 2779,
      "Ġsac": 2780,
      "Ġnoble": 2781,
      "ĠMad": 2782,
      "Ġglass": 2783,
      "uous": 2784,
      "ishing": 2785,
      "father": 2786,
      "uly": 2787,
      "bre": 2788,
      "Ġcloud": 2789,
      "Ġremain": 2790,
      "ajor": 2791,
      "tic": 2792,
      "Ġwaiting": 2793,
      "Ġmass": 2794,
      "Ġimpossible": 2795,
      "Ġevil": 2796,
      "ĠSome": 2797,
      "reme": 2798,
      "kind": 2799,
      "otten": 2800,
      "Ġappearance": 2801,
      "Ã©": 2802,
      "Ġcomplete": 2803,
      "heart": 2804,
      "Ġevent": 2805,
      "Ġfat": 2806,
      "ests": 2807,
      "Ġpec": 2808,
      "Ġlikely": 2809,
      "idered": 2810,
      "itation": 2811,
      "think": 2812,
      "His": 2813,
      "Ġletters": 2814,
      "Ġbreath": 2815,
      "illy": 2816,
      "pass": 2817,
      "Ġmer": 2818,
      "Ġladies": 2819,
      "ford": 2820,
      "Ġfavour": 2821,
      "Ġstreet": 2822,
      "ĠJack": 2823,
      "back": 2824,
      "IL": 2825,
      "zz": 2826,
      "Ġeffort": 2827,
      "Ġfit": 2828,
      "Ġsav": 2829,
      "Ġpleasant": 2830,
      "Ġcru": 2831,
      "somet": 2832,
      "cceed": 2833,
      "Ġsnow": 2834,
      "Ġhung": 2835,
      "ners": 2836,
      "Ġscene": 2837,
      "pri": 2838,
      "rid": 2839,
      "ented": 2840,
      "...": 2841,
      "ĠRob": 2842,
      "itary": 2843,
      "ris": 2844,
      "roy": 2845,
      "urope": 2846,
      "Ġrap": 2847,
      "Ġsimple": 2848,
      "lend": 2849,
      "ales": 2850,
      "ĠĠĠĠĠĠĠĠĠ": 2851,
      "Ġresol": 2852,
      "rodu": 2853,
      "Ġsole": 2854,
      "ĠAm": 2855,
      "atic": 2856,
      "hold": 2857,
      "Ġplaces": 2858,
      "uge": 2859,
      "Ġhun": 2860,
      "Ġviol": 2861,
      "lling": 2862,
      "alley": 2863,
      "ĠPeter": 2864,
      "good": 2865,
      "Ġemb": 2866,
      "Ġrecogn": 2867,
      "Ġguard": 2868,
      "formed": 2869,
      "Ġhistory": 2870,
      "Ġarrived": 2871,
      "Ġsuffic": 2872,
      "Ġleg": 2873,
      "Ġshook": 2874,
      "Ġtalking": 2875,
      "Ġexpression": 2876,
      "Ġgrace": 2877,
      "rey": 2878,
      "Ġobserved": 2879,
      "Ġraised": 2880,
      "ague": 2881,
      "Ah": 2882,
      "rs": 2883,
      "Ġbeside": 2884,
      "Ġcircumstances": 2885,
      "ĠZ": 2886,
      "Ġoccur": 2887,
      "Ġfuture": 2888,
      "Ġwouldn": 2889,
      "een": 2890,
      "Ġpassion": 2891,
      "Ġpop": 2892,
      "orough": 2893,
      "Ġ|": 2894,
      "Ġutter": 2895,
      "Ġworse": 2896,
      "jo": 2897,
      "Ġrid": 2898,
      "ĠMan": 2899,
      "Ġfal": 2900,
      "Ġcoun": 2901,
      "Ġshot": 2902,
      "nat": 2903,
      "Ġcou": 2904,
      "pers": 2905,
      "imate": 2906,
      "Ġsky": 2907,
      "Let": 2908,
      "ĠHen": 2909,
      "worth": 2910,
      "Ġafternoon": 2911,
      "Ġafterwards": 2912,
      "Ġexpress": 2913,
      "might": 2914,
      "Ġplease": 2915,
      "Ġspeaking": 2916,
      "reet": 2917,
      "Don": 2918,
      "Ġmess": 2919,
      "Ġminute": 2920,
      "Ġfilled": 2921,
      "Ġaltogether": 2922,
      "known": 2923,
      "Ġfancy": 2924,
      "Ġsin": 2925,
      "Ġbroad": 2926,
      "erty": 2927,
      "Ġgiving": 2928,
      "ribut": 2929,
      "Ġvillage": 2930,
      "Ġdoctor": 2931,
      "Ġer": 2932,
      "âĢĺ": 2933,
      "Ġfle": 2934,
      "Ġsurprise": 2935,
      "aste": 2936,
      "EL": 2937,
      "cr": 2938,
      "Ġsorry": 2939,
      "Ġkiss": 2940,
      "Ġneg": 2941,
      "Al": 2942,
      "uded": 2943,
      "Ġincre": 2944,
      "did": 2945,
      "Ġuncle": 2946,
      "dist": 2947,
      "Be": 2948,
      "Ġbeginning": 2949,
      "ruct": 2950,
      "Ġdim": 2951,
      "Ġgirls": 2952,
      "ĠFrom": 2953,
      "Ġgen": 2954,
      "much": 2955,
      "Ġbooks": 2956,
      "Ġsusp": 2957,
      "Ġhang": 2958,
      "Ġsick": 2959,
      "idly": 2960,
      "Ġstream": 2961,
      "ean": 2962,
      "Ġstrugg": 2963,
      "ett": 2964,
      "Ġtears": 2965,
      "Ġcouldn": 2966,
      "itable": 2967,
      "ĠAb": 2968,
      "icate": 2969,
      "Ġgarden": 2970,
      "Ġleaving": 2971,
      "olly": 2972,
      "Ġbattle": 2973,
      "Ġpock": 2974,
      "Ġadmir": 2975,
      "ulation": 2976,
      "Ġdepart": 2977,
      "Ġspecies": 2978,
      "Ġturning": 2979,
      "eless": 2980,
      "Ġfamil": 2981,
      "Ġconsequ": 2982,
      "Ġfun": 2983,
      "Ġcorner": 2984,
      "may": 2985,
      "IC": 2986,
      "overn": 2987,
      "Ġpath": 2988,
      "ption": 2989,
      "ueen": 2990,
      "iction": 2991,
      "umed": 2992,
      "Ġemploy": 2993,
      "ĠPhil": 2994,
      "Ġfly": 2995,
      "ii": 2996,
      "alled": 2997,
      "Ġoutside": 2998,
      "mar": 2999,
      "Ġprincip": 3000,
      "Ġshut": 3001,
      "Ġty": 3002,
      "Ġlives": 3003,
      "ils": 3004,
      "gment": 3005,
      "antage": 3006,
      "ĠYet": 3007,
      "such": 3008,
      "ranger": 3009,
      "Ġoffice": 3010,
      "ĠGerman": 3011,
      "Ġjourney": 3012,
      "asp": 3013,
      "inite": 3014,
      "Ġsmo": 3015,
      "Ġprev": 3016,
      "mber": 3017,
      "Ġlooks": 3018,
      "Ġentirely": 3019,
      "ND": 3020,
      "Ġconversation": 3021,
      "sl": 3022,
      "Ġtrying": 3023,
      "made": 3024,
      "Ġ8": 3025,
      "add": 3026,
      "Ġgod": 3027,
      "ĠGl": 3028,
      "bey": 3029,
      "ĠPl": 3030,
      "bly": 3031,
      "bing": 3032,
      "bar": 3033,
      "Ġmiss": 3034,
      "ĠMay": 3035,
      "Ġwrote": 3036,
      "By": 3037,
      "wr": 3038,
      "Ġaction": 3039,
      "Ġeager": 3040,
      "Ġisn": 3041,
      "Ġlean": 3042,
      "Ġperiod": 3043,
      "Ġpaid": 3044,
      "Ġdeclared": 3045,
      "Ġhall": 3046,
      "ING": 3047,
      "through": 3048,
      "ora": 3049,
      "Ġ7": 3050,
      "Ġeasily": 3051,
      "Ġsake": 3052,
      "Ġfro": 3053,
      "Ġespecially": 3054,
      "Ch": 3055,
      "Ġthird": 3056,
      "Ġign": 3057,
      "elled": 3058,
      "Ġpeculiar": 3059,
      "Ġgenerally": 3060,
      "ĠPrince": 3061,
      "note": 3062,
      "rav": 3063,
      "Ġescape": 3064,
      "Ġla": 3065,
      "Ġsymp": 3066,
      "Ġpale": 3067,
      "Ġmut": 3068,
      "uation": 3069,
      "Ġvarious": 3070,
      "retched": 3071,
      "Ġinstant": 3072,
      "Ġbeneath": 3073,
      "rif": 3074,
      "Ġliter": 3075,
      "Ġscarcely": 3076,
      "Ġmil": 3077,
      "Ġconduct": 3078,
      "Ġoblig": 3079,
      "Ġimmediately": 3080,
      "ades": 3081,
      "Ġnation": 3082,
      "ram": 3083,
      "Ġprec": 3084,
      "Ġreply": 3085,
      "Ġcondition": 3086,
      "iant": 3087,
      "ashed": 3088,
      "rect": 3089,
      "Ġpiece": 3090,
      "bes": 3091,
      "Ġhero": 3092,
      "Ġquickly": 3093,
      "Ġspeech": 3094,
      "enn": 3095,
      "Ġpersons": 3096,
      "Ġconcern": 3097,
      "Ġfaint": 3098,
      "Ġapparent": 3099,
      "Ġlearned": 3100,
      "Ġconn": 3101,
      "Ġabsolute": 3102,
      "Ġprevent": 3103,
      "18": 3104,
      "osop": 3105,
      "Ġsmiled": 3106,
      "Ġdirection": 3107,
      "Ġrate": 3108,
      "ĠAmerican": 3109,
      "rec": 3110,
      "Ġcharge": 3111,
      "ille": 3112,
      "ems": 3113,
      "Ġlif": 3114,
      "ĠCan": 3115,
      "Ġsucceed": 3116,
      "don": 3117,
      "ĠFrance": 3118,
      "Ġperfectly": 3119,
      "looking": 3120,
      "clock": 3121,
      "ĠChristian": 3122,
      "Ġenter": 3123,
      "char": 3124,
      "eds": 3125,
      "!--": 3126,
      "Ġparts": 3127,
      "Ġobt": 3128,
      "Ġmoon": 3129,
      "without": 3130,
      "Ġcapt": 3131,
      "Ġvain": 3132,
      "Here": 3133,
      "Ġtouch": 3134,
      "ĠEurope": 3135,
      "Ġmarry": 3136,
      "idently": 3137,
      "Ġtall": 3138,
      "Ġfloor": 3139,
      "lected": 3140,
      "Ġprivate": 3141,
      "Ġris": 3142,
      "Ġstop": 3143,
      "spir": 3144,
      "gel": 3145,
      "ĠEl": 3146,
      "ument": 3147,
      "Ġexactly": 3148,
      "Ġhonest": 3149,
      "One": 3150,
      "Ġfood": 3151,
      "ĠEm": 3152,
      "Ġcompanion": 3153,
      "chief": 3154,
      "After": 3155,
      "two": 3156,
      "oses": 3157,
      "ox": 3158,
      "Ġchanged": 3159,
      "Ġlines": 3160,
      "anch": 3161,
      "Ġunless": 3162,
      "ĠColonel": 3163,
      "Ġspoken": 3164,
      "Ġterrible": 3165,
      "Ġsupposed": 3166,
      "pered": 3167,
      "Ġfirm": 3168,
      "Ġcost": 3169,
      "ĠPe": 3170,
      "Ġsociety": 3171,
      "Ġban": 3172,
      "Ġvict": 3173,
      "work": 3174,
      "Ġwise": 3175,
      "Ġrepeated": 3176,
      "Ġspring": 3177,
      "estions": 3178,
      "Ġwished": 3179,
      "these": 3180,
      "Ġproc": 3181,
      "essel": 3182,
      "ails": 3183,
      "hant": 3184,
      "velop": 3185,
      "Ġearnest": 3186,
      "Ġfallen": 3187,
      "iently": 3188,
      "Ġsimply": 3189,
      "Ġthank": 3190,
      "ancing": 3191,
      "ipped": 3192,
      "must": 3193,
      "Ġrepresent": 3194,
      "Ġrunning": 3195,
      "Ġid": 3196,
      "lly": 3197,
      "ĠQu": 3198,
      "Ġfashion": 3199,
      "\"'": 3200,
      "ointed": 3201,
      "Ġfright": 3202,
      "Ġforest": 3203,
      "Ġcalm": 3204,
      "cher": 3205,
      "ator": 3206,
      "anted": 3207,
      "Ġtender": 3208,
      "Ġpleased": 3209,
      "osite": 3210,
      "Ġwand": 3211,
      "stone": 3212,
      "Ġdom": 3213,
      "Ġpursu": 3214,
      "Ġhabit": 3215,
      "emed": 3216,
      "umb": 3217,
      "Ġunderstood": 3218,
      "Ġneck": 3219,
      "yn": 3220,
      "Ġet": 3221,
      "Ġkilled": 3222,
      "Ġcurious": 3223,
      "ĠHouse": 3224,
      "Ġpa": 3225,
      "--------": 3226,
      "ieve": 3227,
      "onder": 3228,
      "Ġbank": 3229,
      "Ġbitter": 3230,
      "Ġkill": 3231,
      "ividual": 3232,
      "Ġvessel": 3233,
      "Ġmatters": 3234,
      "Ġgentlemen": 3235,
      "say": 3236,
      "ĠWhere": 3237,
      "col": 3238,
      "ites": 3239,
      "Ġfeelings": 3240,
      "Ġdifficulty": 3241,
      "Ġmarriage": 3242,
      "Ġlower": 3243,
      "Ġmain": 3244,
      "Ġfixed": 3245,
      "Ġnotice": 3246,
      "Ġburst": 3247,
      "ication": 3248,
      "ĠQueen": 3249,
      "ral": 3250,
      "Ġinfluence": 3251,
      "Ġmaid": 3252,
      "Ġdare": 3253,
      "af": 3254,
      "Ġnarrow": 3255,
      "ingu": 3256,
      "Ġcivil": 3257,
      "friend": 3258,
      "Ġsummer": 3259,
      "Ġwalls": 3260,
      "Ġcheer": 3261,
      "rop": 3262,
      "fortun": 3263,
      "ibility": 3264,
      "Ġhealth": 3265,
      "occ": 3266,
      "Ġears": 3267,
      "Ġsteps": 3268,
      "Ġmel": 3269,
      "first": 3270,
      "gain": 3271,
      "Ġvan": 3272,
      "Ġfier": 3273,
      "por": 3274,
      "Ġmiddle": 3275,
      "rig": 3276,
      "Ġimportant": 3277,
      "Ġextreme": 3278,
      "ĠSha": 3279,
      "sit": 3280,
      "Ġpure": 3281,
      "Ġcler": 3282,
      "ien": 3283,
      "ousin": 3284,
      "ipp": 3285,
      "Ġleaves": 3286,
      "Ġdistinct": 3287,
      "ember": 3288,
      "rap": 3289,
      "gress": 3290,
      ".âĢĿ": 3291,
      "itive": 3292,
      "ST": 3293,
      "nothing": 3294,
      "Ġanxious": 3295,
      "leep": 3296,
      "Ġallowed": 3297,
      "Ġreach": 3298,
      "inst": 3299,
      "Ġbeat": 3300,
      "ortunity": 3301,
      "ky": 3302,
      "Ġvirt": 3303,
      "Ġpit": 3304,
      "ashing": 3305,
      "rep": 3306,
      "Ġapart": 3307,
      "Ġbelieved": 3308,
      "Ġshadow": 3309,
      "Ġlying": 3310,
      "aled": 3311,
      "stem": 3312,
      "nce": 3313,
      "antic": 3314,
      "ĠJames": 3315,
      "aly": 3316,
      "Ġthrew": 3317,
      "Ġhath": 3318,
      "Ġsepar": 3319,
      "Ġpun": 3320,
      "itor": 3321,
      "Ġgrass": 3322,
      "ĠHarry": 3323,
      "Ġdrawing": 3324,
      "Ġpicture": 3325,
      "Ġexperience": 3326,
      "Ġtrain": 3327,
      "Ġborn": 3328,
      "acher": 3329,
      "oted": 3330,
      "Ġallow": 3331,
      "Ġball": 3332,
      "Ġbecom": 3333,
      "Ġarg": 3334,
      "Ġremarked": 3335,
      "Ġhost": 3336,
      "Ġiron": 3337,
      "Ġmurm": 3338,
      "Ġrain": 3339,
      "field": 3340,
      "ishment": 3341,
      "Ġcat": 3342,
      "key": 3343,
      "Ġflowers": 3344,
      "Ġconsidered": 3345,
      "Ġstat": 3346,
      "Ġbow": 3347,
      "Ġsand": 3348,
      "ium": 3349,
      "tering": 3350,
      "law": 3351,
      ":--": 3352,
      "Ġproud": 3353,
      "Ġconscious": 3354,
      "reen": 3355,
      "erve": 3356,
      "Ġrace": 3357,
      "OL": 3358,
      "vation": 3359,
      "round": 3360,
      "Ġpassage": 3361,
      "Ġclaim": 3362,
      "Ġpi": 3363,
      "Ġmusic": 3364,
      "Foot": 3365,
      "arily": 3366,
      "Ġtemper": 3367,
      "Ġdegree": 3368,
      "Ġap": 3369,
      "rees": 3370,
      "Ġsharp": 3371,
      "Ġserious": 3372,
      "Ġvent": 3373,
      "aving": 3374,
      "Ġclosed": 3375,
      "Ġancient": 3376,
      "acc": 3377,
      "Ġmill": 3378,
      "Ġwatched": 3379,
      "Ġquietly": 3380,
      "vey": 3381,
      "Ġfalse": 3382,
      "Ġgate": 3383,
      "Ġwonderful": 3384,
      "Ġharm": 3385,
      "Ġglance": 3386,
      "Ġchap": 3387,
      "Ġresp": 3388,
      "ding": 3389,
      "keep": 3390,
      "uses": 3391,
      "Ġfifty": 3392,
      "Ġoffer": 3393,
      "Ġstranger": 3394,
      "Ġdifference": 3395,
      "TH": 3396,
      "eav": 3397,
      "Ġloss": 3398,
      "arest": 3399,
      "elve": 3400,
      "ann": 3401,
      "Ġourselves": 3402,
      "Ġdarkness": 3403,
      "Ġpromise": 3404,
      "Ġain": 3405,
      "Ġways": 3406,
      "ees": 3407,
      "Ġstro": 3408,
      "Ġbox": 3409,
      "omen": 3410,
      "Ġlanguage": 3411,
      "Ġtong": 3412,
      "Ġimpro": 3413,
      "Ġloud": 3414,
      "Ġvast": 3415,
      "dif": 3416,
      "Ġnorth": 3417,
      "Ġdrawn": 3418,
      "Ġcovered": 3419,
      "sur": 3420,
      "Ġpra": 3421,
      "Ġseat": 3422,
      "Ġwriting": 3423,
      "ĠDuke": 3424,
      "ception": 3425,
      "Ġagree": 3426,
      "Ġgro": 3427,
      "ĠBritish": 3428,
      "bro": 3429,
      "Ġyours": 3430,
      "ĠWho": 3431,
      "Ġconce": 3432,
      "ify": 3433,
      "ĠGu": 3434,
      "orse": 3435,
      "Ġphys": 3436,
      "Ġpassing": 3437,
      "Ġformed": 3438,
      "kin": 3439,
      "Ġseven": 3440,
      "Ġspite": 3441,
      "irth": 3442,
      "umn": 3443,
      "Ã¦": 3444,
      "Ġtalked": 3445,
      "Ġpresently": 3446,
      "aves": 3447,
      "Ġexcell": 3448,
      "Where": 3449,
      "Ġbell": 3450,
      "Footnote": 3451,
      "asc": 3452,
      "Ġfem": 3453,
      "Ġpress": 3454,
      "Ġfra": 3455,
      "Ġfond": 3456,
      "Ġrise": 3457,
      "Ġgame": 3458,
      "view": 3459,
      "ĠJim": 3460,
      "Ġhy": 3461,
      "supp": 3462,
      "Ġengaged": 3463,
      "Ġstar": 3464,
      "ker": 3465,
      "Ġmemory": 3466,
      "Ġcrit": 3467,
      "Ġdetermined": 3468,
      "ajesty": 3469,
      "Ġdecided": 3470,
      "ilar": 3471,
      "isto": 3472,
      "hum": 3473,
      "Ġgrou": 3474,
      "erable": 3475,
      "Ġdropped": 3476,
      "Ġoffered": 3477,
      "Ġdesert": 3478,
      "Ġhouses": 3479,
      "Ġappl": 3480,
      "orne": 3481,
      "fle": 3482,
      "Ġguess": 3483,
      "Ġrough": 3484,
      "Ġdue": 3485,
      "Ġgovernment": 3486,
      "OM": 3487,
      "ĠYork": 3488,
      "Ġcreature": 3489,
      "Ġspent": 3490,
      "Ġcra": 3491,
      "Ġmodern": 3492,
      "Ġfurn": 3493,
      "play": 3494,
      "iven": 3495,
      "aked": 3496,
      "Ġdry": 3497,
      "Ġfol": 3498,
      "sub": 3499,
      "Who": 3500,
      "Ġphil": 3501,
      "Ġcatch": 3502,
      "ĠTr": 3503,
      "Ġempt": 3504,
      "ulous": 3505,
      "Ġtrou": 3506,
      "being": 3507,
      "Ġclothes": 3508,
      "ounced": 3509,
      "osity": 3510,
      "Ġreck": 3511,
      "Ġheads": 3512,
      "ĠIndian": 3513,
      "Ġorders": 3514,
      "Ġmountain": 3515,
      "ĠEvery": 3516,
      "ĠWest": 3517,
      "arl": 3518,
      "fall": 3519,
      "Ġpocket": 3520,
      "those": 3521,
      "Ġlot": 3522,
      "Ġaffection": 3523,
      "ĠLa": 3524,
      "dec": 3525,
      "ĠSh": 3526,
      "ocks": 3527,
      "Ġmot": 3528,
      "ĠMart": 3529,
      "reek": 3530,
      "spe": 3531,
      "turn": 3532,
      "soci": 3533,
      "Ġproduced": 3534,
      "ichard": 3535,
      "half": 3536,
      "Ġcases": 3537,
      "icated": 3538,
      "lar": 3539,
      "ĠWilliam": 3540,
      "Ġassist": 3541,
      "Ġforms": 3542,
      "inging": 3543,
      "Ġsearch": 3544,
      "ED": 3545,
      "ĠHenry": 3546,
      "Ġspread": 3547,
      "cience": 3548,
      "Ġcustom": 3549,
      "ĠEven": 3550,
      "Ġdescend": 3551,
      "Ġhid": 3552,
      "Ġbirds": 3553,
      "Ġdiscovered": 3554,
      "something": 3555,
      "Ġsword": 3556,
      "ulated": 3557,
      "Ġpride": 3558,
      "urally": 3559,
      "Ġblow": 3560,
      "Ġproperty": 3561,
      "sed": 3562,
      "Ġeld": 3563,
      "hern": 3564,
      "III": 3565,
      "pan": 3566,
      "Ġvalley": 3567,
      "Eng": 3568,
      "Ġshoulder": 3569,
      "Ġadvent": 3570,
      "Ġ16": 3571,
      "aret": 3572,
      "Ġsorrow": 3573,
      "Ġcolour": 3574,
      "ĠYes": 3575,
      "Ġfault": 3576,
      "Ġreading": 3577,
      "formation": 3578,
      "Ġbold": 3579,
      "Ar": 3580,
      "inci": 3581,
      "Ġfortune": 3582,
      "Ġstick": 3583,
      "ĠSm": 3584,
      "Ġliked": 3585,
      "oned": 3586,
      "uted": 3587,
      "Ġstir": 3588,
      "agg": 3589,
      "ĠParis": 3590,
      "away": 3591,
      "Ġbottom": 3592,
      "mitted": 3593,
      "Ġpersonal": 3594,
      "Ġ-": 3595,
      "Ġappre": 3596,
      "aterial": 3597,
      "mind": 3598,
      "raph": 3599,
      "hest": 3600,
      "Ġur": 3601,
      "Ġcommun": 3602,
      "tw": 3603,
      "Ġprepared": 3604,
      "Ġaston": 3605,
      "Ġbreakfast": 3606,
      "Ġthin": 3607,
      "Ġgreatest": 3608,
      "AM": 3609,
      "Ġangry": 3610,
      "acing": 3611,
      "Ġaccording": 3612,
      "Ġwaited": 3613,
      "Ġblind": 3614,
      "Ġfrequ": 3615,
      "ere": 3616,
      "lt": 3617,
      "iments": 3618,
      "Ġbeast": 3619,
      "Ġfru": 3620,
      "ĠFather": 3621,
      "Ġones": 3622,
      "oid": 3623,
      "Ġbab": 3624,
      "nec": 3625,
      "Ġsplend": 3626,
      "ushing": 3627,
      "found": 3628,
      "Ġwinter": 3629,
      "Ġforgotten": 3630,
      "pet": 3631,
      "Ġsong": 3632,
      "Ġadvantage": 3633,
      "Ġopposite": 3634,
      "Ġaware": 3635,
      "arther": 3636,
      "Ġshare": 3637,
      "000": 3638,
      "athy": 3639,
      "Ġreve": 3640,
      "Ġ9": 3641,
      "Ġstation": 3642,
      "Ġthrown": 3643,
      "Ġrising": 3644,
      "Ġbreast": 3645,
      "Ġwine": 3646,
      "ethod": 3647,
      "Ġthirty": 3648,
      "Ġ10": 3649,
      "attered": 3650,
      "ux": 3651,
      "Come": 3652,
      "Ġknowing": 3653,
      "Ġpounds": 3654,
      "ĠSw": 3655,
      "Ġbrave": 3656,
      "Ġsurprised": 3657,
      "Ġestab": 3658,
      "last": 3659,
      "enance": 3660,
      "Ġworks": 3661,
      "Ġpity": 3662,
      "erved": 3663,
      ",âĢĿ": 3664,
      "eces": 3665,
      "Ġdam": 3666,
      "Ġquarter": 3667,
      "Ġdiscuss": 3668,
      "Ġant": 3669,
      "Ġthro": 3670,
      "Ġmoral": 3671,
      "llen": 3672,
      "Ġjudge": 3673,
      "eg": 3674,
      "Ġhigher": 3675,
      "ĠCha": 3676,
      "Ġmeeting": 3677,
      "Ġcand": 3678,
      "Ġwear": 3679,
      "Ġdust": 3680,
      "Ġignor": 3681,
      "Ġevidence": 3682,
      "ishop": 3683,
      "ĠSpan": 3684,
      "Ġfinished": 3685,
      "Ġsettled": 3686,
      "Ġnames": 3687,
      "Ġstudy": 3688,
      "Ġattend": 3689,
      "itution": 3690,
      "?--": 3691,
      "fit": 3692,
      "Ġcover": 3693,
      "Ġspace": 3694,
      "Ġband": 3695,
      "Ġlose": 3696,
      "Ġjustice": 3697,
      "ĠLou": 3698,
      "Ġinterrupt": 3699,
      "Ġintrodu": 3700,
      "Ġindividual": 3701,
      "Ġshown": 3702,
      "ĠGeneral": 3703,
      "iny": 3704,
      "Ġdoll": 3705,
      "Ġii": 3706,
      "ION": 3707,
      "Ġnice": 3708,
      "ailed": 3709,
      "boy": 3710,
      "Ġremembered": 3711,
      "iring": 3712,
      "Ġfaces": 3713,
      "Ġsoldiers": 3714,
      "still": 3715,
      "Ġwid": 3716,
      "oyal": 3717,
      "ĠCount": 3718,
      "Ġmonth": 3719,
      "Ġsouth": 3720,
      "Ġcourage": 3721,
      "Ġintended": 3722,
      "Ġweather": 3723,
      "ses": 3724,
      "AD": 3725,
      "Miss": 3726,
      "Ġgreatly": 3727,
      "eas": 3728,
      "istic": 3729,
      "Ġtea": 3730,
      "conc": 3731,
      "ables": 3732,
      "Ġextra": 3733,
      "Ġfacts": 3734,
      "Ġph": 3735,
      "Ġterms": 3736,
      "Ġordinary": 3737,
      "Ġsolemn": 3738,
      "Ġofficer": 3739,
      "Ġdepend": 3740,
      "ait": 3741,
      "Ġmagn": 3742,
      "Her": 3743,
      "Ġaunt": 3744,
      "using": 3745,
      "Ġlaws": 3746,
      "course": 3747,
      "Ġess": 3748,
      "ordinary": 3749,
      "Ġweeks": 3750,
      "Ġbill": 3751,
      "bury": 3752,
      "acious": 3753,
      "Ġnative": 3754,
      "Ġmort": 3755,
      "water": 3756,
      "Ġamount": 3757,
      "Ġobliged": 3758,
      "gged": 3759,
      "Ġinno": 3760,
      "Ġvalue": 3761,
      "Ġbare": 3762,
      "Ġheight": 3763,
      "Ġtaste": 3764,
      "fact": 3765,
      "Ġbrown": 3766,
      "essor": 3767,
      "Ġopportunity": 3768,
      "sw": 3769,
      "Ġregular": 3770,
      "Ġpack": 3771,
      "Your": 3772,
      "Ġmeaning": 3773,
      "Ġmotion": 3774,
      "came": 3775,
      "Ġdeb": 3776,
      "Ġhurt": 3777,
      "Ġofficers": 3778,
      "Ġ15": 3779,
      "mother": 3780,
      "Ġwel": 3781,
      "ĠChurch": 3782,
      "Ġsystem": 3783,
      "Ġluck": 3784,
      "athered": 3785,
      "Ġcruel": 3786,
      "ification": 3787,
      "ĠFrank": 3788,
      "Ġclim": 3789,
      "Ġwhispered": 3790,
      "quis": 3791,
      "ruction": 3792,
      "Ġequal": 3793,
      "Ġinstance": 3794,
      "Ġproved": 3795,
      "icious": 3796,
      "umber": 3797,
      "Ġrail": 3798,
      "ste": 3799,
      "hether": 3800,
      "Ġcred": 3801,
      "Ġaffairs": 3802,
      "Ġbread": 3803,
      "Ġspirits": 3804,
      "Ġholding": 3805,
      "ading": 3806,
      "Ġpointed": 3807,
      "Ġ&": 3808,
      "Ġbesides": 3809,
      "ĠAND": 3810,
      "Ġreceive": 3811,
      "del": 3812,
      "because": 3813,
      "ĠEx": 3814,
      "Ġwalking": 3815,
      "ĠTheir": 3816,
      "Ġideas": 3817,
      "Ġsituation": 3818,
      "Ġwasn": 3819,
      "Ġendeav": 3820,
      "isters": 3821,
      "Ġtired": 3822,
      "OT": 3823,
      "Ġforced": 3824,
      "people": 3825,
      "Ġprove": 3826,
      "Ġquestions": 3827,
      "agement": 3828,
      "Ġfate": 3829,
      "asons": 3830,
      "Ġshoulders": 3831,
      "Ġkeeping": 3832,
      "host": 3833,
      "__": 3834,
      "Ġhills": 3835,
      "orious": 3836,
      "sat": 3837,
      "wind": 3838,
      "ok": 3839,
      "ĠScot": 3840,
      "Ġdeck": 3841,
      "Ġsuggested": 3842,
      "Ġtroops": 3843,
      "Ġrode": 3844,
      "Ġsilver": 3845,
      "ferent": 3846,
      "theless": 3847,
      "Ġcrossed": 3848,
      "Ġphilosop": 3849,
      "bell": 3850,
      "IR": 3851,
      "ardon": 3852,
      "Ġservant": 3853,
      "Ġexistence": 3854,
      "another": 3855,
      "ainted": 3856,
      "vis": 3857,
      "life": 3858,
      "ĠXX": 3859,
      "Ġweight": 3860,
      "igned": 3861,
      "Ġaside": 3862,
      "hens": 3863,
      "Ġlies": 3864,
      "cing": 3865,
      "child": 3866,
      "Ġeduc": 3867,
      "Ġroof": 3868,
      "ĠCharles": 3869,
      "Ġ12": 3870,
      "Ġcomb": 3871,
      "Ġclean": 3872,
      "Ġfamiliar": 3873,
      "tis": 3874,
      "Ġtwelve": 3875,
      "Ġintellig": 3876,
      "Ġsmoke": 3877,
      "Ġshame": 3878,
      "Ġedge": 3879,
      "Ġdistant": 3880,
      "Ġtouched": 3881,
      "conf": 3882,
      "ĠOld": 3883,
      "Ġanimals": 3884,
      "Ġalive": 3885,
      "Ġcabin": 3886,
      "ye": 3887,
      "udden": 3888,
      "Ġaffair": 3889,
      "Ġyellow": 3890,
      "ĠDan": 3891,
      "asant": 3892,
      "ortion": 3893,
      "Ġcaused": 3894,
      "Ġbod": 3895,
      "Ġdign": 3896,
      "Ġfingers": 3897,
      "ĠHeaven": 3898,
      "epend": 3899,
      "Ġexample": 3900,
      "Ġrocks": 3901,
      "Ġworst": 3902,
      "Ġlegs": 3903,
      "ĠPaul": 3904,
      "Ġcop": 3905,
      "IV": 3906,
      "acle": 3907,
      "Ġanimal": 3908,
      "vi": 3909,
      "Ġgrat": 3910,
      "Ġknight": 3911,
      "Ġhappiness": 3912,
      "Ġreport": 3913,
      "Ġgives": 3914,
      "ĠLuc": 3915,
      "Ġleap": 3916,
      "Ġtelling": 3917,
      "Ġpromised": 3918,
      "ĠYour": 3919,
      "Ġnobody": 3920,
      "standing": 3921,
      "shall": 3922,
      "Ġpair": 3923,
      "Ġexplained": 3924,
      "Ġwilling": 3925,
      "Ġcott": 3926,
      "Ġotherwise": 3927,
      "rose": 3928,
      "aval": 3929,
      "astle": 3930,
      "Ġcoat": 3931,
      "Ġstern": 3932,
      "Ġreader": 3933,
      "ĠAmerica": 3934,
      "Ġswift": 3935,
      "UR": 3936,
      "reck": 3937,
      "ĠDav": 3938,
      "Ġlover": 3939,
      "Ġgloom": 3940,
      "ipe": 3941,
      "Ġwoods": 3942,
      "terday": 3943,
      "AS": 3944,
      "lection": 3945,
      "Ġrevol": 3946,
      "Ġaddress": 3947,
      "Ġcoast": 3948,
      "lo": 3949,
      "Ġtwice": 3950,
      "enth": 3951,
      "Ġdestroy": 3952,
      "Ġtakes": 3953,
      "ĠFran": 3954,
      "Ġoper": 3955,
      "Good": 3956,
      "Ġspeed": 3957,
      "stairs": 3958,
      "Ġcrown": 3959,
      "Ġwitness": 3960,
      "Sir": 3961,
      "interest": 3962,
      "hib": 3963,
      "Ġdull": 3964,
      "Ġcousin": 3965,
      "Ġarrange": 3966,
      "amb": 3967,
      "Ġdistur": 3968,
      "isc": 3969,
      "ĠCour": 3970,
      "Ġtongue": 3971,
      "10": 3972,
      "Ġbuilt": 3973,
      "Ġagreed": 3974,
      "Ġsides": 3975,
      "Ġfill": 3976,
      "jud": 3977,
      "Ġevidently": 3978,
      "mission": 3979,
      "Ġdistingu": 3980,
      "Ġlisten": 3981,
      "Ġwatching": 3982,
      "Ġconsiderable": 3983,
      "Ġarch": 3984,
      "Ġapparently": 3985,
      "Ġsteam": 3986,
      "ĠBo": 3987,
      "Ġcarriage": 3988,
      "book": 3989,
      "Ġthreat": 3990,
      "lin": 3991,
      "things": 3992,
      "ias": 3993,
      "Ġhaven": 3994,
      "Ġempty": 3995,
      "ENT": 3996,
      "Ġhurried": 3997,
      "ugust": 3998,
      "Ġfarther": 3999,
      "',": 4000,
      "ability": 4001,
      "Ġartic": 4002,
      "Ġhide": 4003,
      "Ġauthority": 4004,
      "ĠCr": 4005,
      "Ġpapers": 4006,
      "Ġasp": 4007,
      "habit": 4008,
      "Ġconfidence": 4009,
      "17": 4010,
      "Ġstreets": 4011,
      "Ġpubl": 4012,
      "Ġgrad": 4013,
      "aper": 4014,
      "Ġhate": 4015,
      "Ġcool": 4016,
      "Ġdevelop": 4017,
      "ĠOur": 4018,
      "Ġstore": 4019,
      "Ġsaved": 4020,
      "nal": 4021,
      "Ġattract": 4022,
      "Ġsocial": 4023,
      "Ġheat": 4024,
      "Ġrule": 4025,
      "Ġmighty": 4026,
      "aries": 4027,
      "unch": 4028,
      "ĠBen": 4029,
      "Ġbull": 4030,
      "Ġsufficient": 4031,
      "Ġinteresting": 4032,
      "Ġparent": 4033,
      "ĠRichard": 4034,
      "Ġcow": 4035,
      "Ġreligion": 4036,
      "yal": 4037,
      "Ġsubst": 4038,
      "Ġworking": 4039,
      "respond": 4040,
      "ouring": 4041,
      "Ġpoints": 4042,
      "Ġhappen": 4043,
      "Ġpet": 4044,
      "happy": 4045,
      "pany": 4046,
      "Ġhesit": 4047,
      "Ġpossession": 4048,
      "Ġwants": 4049,
      "Ġdevil": 4050,
      "Ġexcellent": 4051,
      "Ġride": 4052,
      "ival": 4053,
      "Ġwealth": 4054,
      "Ġmountains": 4055,
      "Ġmentioned": 4056,
      "Ġsurely": 4057,
      "Ġ19": 4058,
      "thur": 4059,
      "ĠThus": 4060,
      "Ġputting": 4061,
      "itement": 4062,
      "liament": 4063,
      "suff": 4064,
      "Ġgrey": 4065,
      "usted": 4066,
      "Ġspecial": 4067,
      "Ġimagine": 4068,
      "against": 4069,
      "ĠPres": 4070,
      "Ġnose": 4071,
      "Ġworthy": 4072,
      "Ind": 4073,
      "ĠMaster": 4074,
      "uzz": 4075,
      "Ġfinding": 4076,
      "cal": 4077,
      "foll": 4078,
      "Ġbless": 4079,
      "order": 4080,
      "Ġsupport": 4081,
      "board": 4082,
      "Ġow": 4083,
      "Ġlod": 4084,
      "Ġfailed": 4085,
      "Ġinj": 4086,
      "Ġdrive": 4087,
      "Ġyards": 4088,
      "ules": 4089,
      "ground": 4090,
      "acity": 4091,
      "Ġdoesn": 4092,
      "ĠHad": 4093,
      "three": 4094,
      "Ġfellows": 4095,
      "iber": 4096,
      "Ġtrade": 4097,
      "overnment": 4098,
      "Ġordered": 4099,
      "ĠPerhaps": 4100,
      "Ġfully": 4101,
      "urely": 4102,
      "held": 4103,
      "God": 4104,
      "Ġregret": 4105,
      "Ġinstinct": 4106,
      "Ġgrown": 4107,
      "Ġpictures": 4108,
      "ĠThom": 4109,
      "Ġmyst": 4110,
      "Ġorgan": 4111,
      "Ġmoments": 4112,
      "Ġwin": 4113,
      "ĠMac": 4114,
      "Ġforty": 4115,
      "Ġhandsome": 4116,
      "Ġdozen": 4117,
      "Ġacquaint": 4118,
      "young": 4119,
      "Ġopening": 4120,
      "Ġrob": 4121,
      "Ġbrief": 4122,
      "Ġstock": 4123,
      "Ġsty": 4124,
      "aker": 4125,
      "bid": 4126,
      "Ġfierce": 4127,
      "eling": 4128,
      "ĠWal": 4129,
      "Ġforeign": 4130,
      "Ġlistened": 4131,
      "Ġodd": 4132,
      "Ġthorough": 4133,
      "inted": 4134,
      "Ġwore": 4135,
      "Ġring": 4136,
      "Ġmaterial": 4137,
      "Ġnoticed": 4138,
      "eping": 4139,
      "Ġcook": 4140,
      "Ġoccurred": 4141,
      "Ġfish": 4142,
      "Ġrom": 4143,
      "oop": 4144,
      "too": 4145,
      "four": 4146,
      "iest": 4147,
      "inal": 4148,
      "ĠNorth": 4149,
      "ĠGood": 4150,
      "Ġwindows": 4151,
      "orous": 4152,
      "--'": 4153,
      "make": 4154,
      "Ġbent": 4155,
      "umph": 4156,
      "Ġsavage": 4157,
      "Ġshape": 4158,
      "Ġhearts": 4159,
      "Ġbuilding": 4160,
      "opp": 4161,
      "esides": 4162,
      "Ġsuffer": 4163,
      "Ġassu": 4164,
      "Ġsimilar": 4165,
      "Ġwicked": 4166,
      "erson": 4167,
      "ulf": 4168,
      "Ġrare": 4169,
      "Ġsatisfied": 4170,
      "Ġnearer": 4171,
      "ĠWar": 4172,
      "seen": 4173,
      "Ġpossess": 4174,
      "Ġadvanced": 4175,
      "Ġdrove": 4176,
      "Ġsuspect": 4177,
      "Ġdwell": 4178,
      "going": 4179,
      "adv": 4180,
      "Ġthrow": 4181,
      "ĠSee": 4182,
      "ĠBur": 4183,
      "unday": 4184,
      "Ġproof": 4185,
      "take": 4186,
      "AC": 4187,
      "Ġdism": 4188,
      "Ġmovement": 4189,
      "ĠBrown": 4190,
      "ander": 4191,
      "Ġsex": 4192,
      "Ġlibert": 4193,
      "Ġabsolutely": 4194,
      "Ġhither": 4195,
      "Ġstage": 4196,
      "ĠStill": 4197,
      "tell": 4198,
      "Ġz": 4199,
      "Ġsurface": 4200,
      "bits": 4201,
      "fa": 4202,
      "serv": 4203,
      "Will": 4204,
      "ndered": 4205,
      "Ġshoot": 4206,
      "ĠGreat": 4207,
      "Ġnoise": 4208,
      "Ġstorm": 4209,
      "ais": 4210,
      "Ġhuge": 4211,
      "kins": 4212,
      "Ġdi": 4213,
      "cond": 4214,
      "bu": 4215,
      "Ġnodd": 4216,
      "Ġspect": 4217,
      "Ġmethod": 4218,
      "ips": 4219,
      "Ġrelief": 4220,
      "ĠMor": 4221,
      "Ġjudgment": 4222,
      "Ġdemanded": 4223,
      "aud": 4224,
      "Ġnovel": 4225,
      "necess": 4226,
      "Ġep": 4227,
      "Ġfanc": 4228,
      "erous": 4229,
      "war": 4230,
      "estic": 4231,
      "Ġaud": 4232,
      "ĠWil": 4233,
      "Ġcouple": 4234,
      "mas": 4235,
      "Ġcontent": 4236,
      "Ġexec": 4237,
      "Ġteeth": 4238,
      "RO": 4239,
      "looked": 4240,
      "Ġdiscover": 4241,
      "ieved": 4242,
      "\"--": 4243,
      "From": 4244,
      "bus": 4245,
      "Ġsettle": 4246,
      "Ġsoldier": 4247,
      "Ġusually": 4248,
      "Ġpick": 4249,
      "Ġadmitted": 4250,
      "always": 4251,
      "Ġbelief": 4252,
      "Ġbore": 4253,
      "Ġhotel": 4254,
      "ustomed": 4255,
      "15": 4256,
      "Ġaid": 4257,
      "woman": 4258,
      "asped": 4259,
      "Ġener": 4260,
      "Ġwest": 4261,
      "Ġho": 4262,
      "Ġexplain": 4263,
      "cript": 4264,
      "Ġglory": 4265,
      "Ġconqu": 4266,
      "ape": 4267,
      "between": 4268,
      "Ġdesper": 4269,
      "atures": 4270,
      "Ġequally": 4271,
      "tle": 4272,
      "Ġbid": 4273,
      "urd": 4274,
      "Ġgrowing": 4275,
      "rows": 4276,
      "Ġfavor": 4277,
      "Ġactually": 4278,
      "Ġanybody": 4279,
      "Ġjoined": 4280,
      "Ġupper": 4281,
      "Ġminds": 4282,
      "yl": 4283,
      "Ġx": 4284,
      "Ġtit": 4285,
      "Ġprince": 4286,
      "ĠSuch": 4287,
      "many": 4288,
      "Ġworked": 4289,
      "ĠRed": 4290,
      "expected": 4291,
      "Ġpolitical": 4292,
      "Mar": 4293,
      "Ġdriven": 4294,
      "ĠBill": 4295,
      "Ġexpressed": 4296,
      "llustr": 4297,
      "Ġmoving": 4298,
      "perfect": 4299,
      "esh": 4300,
      "Ġvig": 4301,
      "oices": 4302,
      "far": 4303,
      "five": 4304,
      "Ġpos": 4305,
      "Ġpaused": 4306,
      ".[": 4307,
      "fulness": 4308,
      "Ġsmiling": 4309,
      "ĠStreet": 4310,
      "Ġbusy": 4311,
      "mb": 4312,
      "cir": 4313,
      "reedom": 4314,
      "Ġfarm": 4315,
      "Ġtest": 4316,
      "Did": 4317,
      "ugg": 4318,
      "Ġtruly": 4319,
      "Ġinn": 4320,
      "inn": 4321,
      "Ġappears": 4322,
      "world": 4323,
      "Ġpersu": 4324,
      "Ġnaturally": 4325,
      "chen": 4326,
      "conscious": 4327,
      "Ġshel": 4328,
      "Ġexerc": 4329,
      "Ġafford": 4330,
      "ĠIN": 4331,
      "Ġdisg": 4332,
      "Ġbuy": 4333,
      "ational": 4334,
      "perhaps": 4335,
      "Ġseek": 4336,
      "eer": 4337,
      "ĠCome": 4338,
      "Ġgolden": 4339,
      "Ġcarefully": 4340,
      "Ġsquare": 4341,
      "Ġjoin": 4342,
      "ental": 4343,
      "Ġmyster": 4344,
      "atr": 4345,
      "Ġder": 4346,
      "Ġportion": 4347,
      "Ġsooner": 4348,
      "Ġevents": 4349,
      "oring": 4350,
      "prop": 4351,
      "Ġlifted": 4352,
      "Ġlog": 4353,
      "country": 4354,
      "top": 4355,
      "Ġadvance": 4356,
      "Ġprogress": 4357,
      "Ġfoolish": 4358,
      "ĠHigh": 4359,
      "Ġseized": 4360,
      "Ġceased": 4361,
      "Ġsuit": 4362,
      "pres": 4363,
      "erry": 4364,
      "itiz": 4365,
      "Ġgle": 4366,
      "Ġkeen": 4367,
      "Ġassured": 4368,
      "ranged": 4369,
      "Ġdangerous": 4370,
      "Ġpage": 4371,
      "ĠSte": 4372,
      "Ġplayed": 4373,
      "sing": 4374,
      "Ġaut": 4375,
      "Ġbegun": 4376,
      "Ġmarked": 4377,
      "Ġyield": 4378,
      "Ġ14": 4379,
      "Ġinside": 4380,
      "lessly": 4381,
      "Ġadvice": 4382,
      "Ġentertain": 4383,
      "Ġhonor": 4384,
      "ĠMon": 4385,
      "moment": 4386,
      "Ġfinally": 4387,
      "cil": 4388,
      "Ġtempt": 4389,
      "ealous": 4390,
      "Ġawful": 4391,
      "Ġfighting": 4392,
      "Ġimportance": 4393,
      "abs": 4394,
      "Ġadmit": 4395,
      "Ġlaughing": 4396,
      "foot": 4397,
      "ĠâĢĺ": 4398,
      "Ġpowers": 4399,
      "ternal": 4400,
      "Ġprefer": 4401,
      "eyes": 4402,
      "Ġsuffered": 4403,
      "Ġtaught": 4404,
      "Ġleading": 4405,
      "Ġpieces": 4406,
      "Ġsigh": 4407,
      "Ġsympathy": 4408,
      "iance": 4409,
      "Ġaccident": 4410,
      "Ġflat": 4411,
      "cur": 4412,
      "Ġservants": 4413,
      "comfort": 4414,
      "Ġgathered": 4415,
      "Ġdirectly": 4416,
      "met": 4417,
      "Ġdressed": 4418,
      "Ġroyal": 4419,
      "Ġmir": 4420,
      "Ġdreadful": 4421,
      "Ġwounded": 4422,
      "pret": 4423,
      "Ġcastle": 4424,
      "Ġnamed": 4425,
      "Ġoccupied": 4426,
      "Ġtale": 4427,
      "Ġsuspic": 4428,
      "Ġtail": 4429,
      "Ġgar": 4430,
      "verse": 4431,
      "ldom": 4432,
      "Ġmeasure": 4433,
      "Ġrank": 4434,
      "Ġremind": 4435,
      "Ġble": 4436,
      "inciples": 4437,
      "pur": 4438,
      "Ġ13": 4439,
      "ensive": 4440,
      "Ġgather": 4441,
      "Ġships": 4442,
      "inking": 4443,
      "icks": 4444,
      "Ġremarkable": 4445,
      "These": 4446,
      "mod": 4447,
      "Ġeverybody": 4448,
      "ik": 4449,
      "rate": 4450,
      "ĠJust": 4451,
      "Very": 4452,
      "Ġstead": 4453,
      "ĠâĢĻ": 4454,
      "ustri": 4455,
      "Ġsucceeded": 4456,
      "ĠSouth": 4457,
      "Ġcompar": 4458,
      "Ġinquir": 4459,
      "iosity": 4460,
      "ĠStates": 4461,
      "Ġflo": 4462,
      "ef": 4463,
      "Ġtran": 4464,
      "aver": 4465,
      "ĠHall": 4466,
      "ĠRobert": 4467,
      "Ġlear": 4468,
      "Ġobey": 4469,
      "ĠRome": 4470,
      "Ġmile": 4471,
      "Ġmistake": 4472,
      "Ġserve": 4473,
      "Ġguns": 4474,
      "uddenly": 4475,
      "Ġresem": 4476,
      "rant": 4477,
      "Ġsingular": 4478,
      "fam": 4479,
      "Ġthinks": 4480,
      "went": 4481,
      "Ġtum": 4482,
      "ology": 4483,
      "Ġknees": 4484,
      "leg": 4485,
      "cis": 4486,
      "ams": 4487,
      "ĠNe": 4488,
      "Ġappeal": 4489,
      "Ġmidst": 4490,
      "Ġdesign": 4491,
      "Ġtur": 4492,
      "poss": 4493,
      "gypt": 4494,
      "Some": 4495,
      "Ġpause": 4496,
      "wild": 4497,
      "Ġplants": 4498,
      "seemed": 4499,
      "pes": 4500,
      "yer": 4501,
      "abel": 4502,
      "Ġdoct": 4503,
      "etch": 4504,
      "Ġshouted": 4505,
      "Ġregarded": 4506,
      "Ġwelcome": 4507,
      "Ġhopes": 4508,
      "Ġpulled": 4509,
      "Ġseason": 4510,
      "Ġcapital": 4511,
      "Ġconcerned": 4512,
      "step": 4513,
      "low": 4514,
      "Ġlevel": 4515,
      "Ġsupper": 4516,
      "put": 4517,
      "astic": 4518,
      "ĠMore": 4519,
      "Ġoriginal": 4520,
      "isher": 4521,
      "Ġcountenance": 4522,
      "Ġimpat": 4523,
      "cy": 4524,
      "hall": 4525,
      "Ġsize": 4526,
      "Never": 4527,
      "Ġabsence": 4528,
      "ĠNature": 4529,
      "ville": 4530,
      "ĠAnne": 4531,
      "ĠMajesty": 4532,
      "Ġpalace": 4533,
      "rol": 4534,
      "ivered": 4535,
      "Ġkindly": 4536,
      "Ġpot": 4537,
      "Ġpartly": 4538,
      "Ġimpression": 4539,
      "ĠIr": 4540,
      "Ġproceeded": 4541,
      "Ġnine": 4542,
      "mond": 4543,
      "Ġpopular": 4544,
      "Ġindign": 4545,
      "Ġsuperior": 4546,
      "Ġhearing": 4547,
      "Ġfalling": 4548,
      "Ġbrain": 4549,
      "GE": 4550,
      "Ġhol": 4551,
      "ĠNever": 4552,
      "Ġgri": 4553,
      "Ġglanced": 4554,
      "Ġdespair": 4555,
      "Ġkey": 4556,
      "Ġmaint": 4557,
      "contin": 4558,
      "give": 4559,
      "ara": 4560,
      "12": 4561,
      "Ġfruit": 4562,
      "Ġrequired": 4563,
      "heard": 4564,
      "Ġbirth": 4565,
      "Ġsevere": 4566,
      "ĠMarch": 4567,
      "Ġqual": 4568,
      "Ġterror": 4569,
      "ieur": 4570,
      "Ġstands": 4571,
      "Ġtim": 4572,
      "Ġencour": 4573,
      "Ġfairly": 4574,
      "Ġsought": 4575,
      "Ġpossibly": 4576,
      "Perhaps": 4577,
      "osom": 4578,
      "ims": 4579,
      "once": 4580,
      "plic": 4581,
      "themselves": 4582,
      "Ġseated": 4583,
      "Ġexcitement": 4584,
      "Ġrefused": 4585,
      "16": 4586,
      "enced": 4587,
      "iqu": 4588,
      "Ġdrop": 4589,
      "Jo": 4590,
      "ĠVen": 4591,
      "Ġconfess": 4592,
      "ĠBell": 4593,
      "Ġlovely": 4594,
      "Ġfortun": 4595,
      "Ġgroup": 4596,
      "Ġgray": 4597,
      "Ġtask": 4598,
      "Ġrejo": 4599,
      "Ġconditions": 4600,
      "Ġmercy": 4601,
      "Ġhoped": 4602,
      "Ġcompanions": 4603,
      "Ġflesh": 4604,
      "ĠDid": 4605,
      "ighed": 4606,
      "Ġwet": 4607,
      "ĠWas": 4608,
      "Ġpowerful": 4609,
      "nor": 4610,
      "Ġliberty": 4611,
      "Ġundert": 4612,
      "Ġdaily": 4613,
      "door": 4614,
      "Ġshop": 4615,
      "Ġremains": 4616,
      "hank": 4617,
      "Ġvague": 4618,
      "Ġserved": 4619,
      "Ġdouble": 4620,
      "Ġcalling": 4621,
      "Ġbal": 4622,
      "Ġyesterday": 4623,
      "Ġemp": 4624,
      "unning": 4625,
      "Ġstruggle": 4626,
      "Ġcup": 4627,
      "earing": 4628,
      "CH": 4629,
      "illa": 4630,
      "amma": 4631,
      "ĠMadame": 4632,
      "upp": 4633,
      "erning": 4634,
      "Ġice": 4635,
      "Ġintellect": 4636,
      "master": 4637,
      "Ġstyle": 4638,
      "better": 4639,
      "Ġcarrying": 4640,
      "Ġsatisfaction": 4641,
      "Ġparticularly": 4642,
      "case": 4643,
      "Ġprospect": 4644,
      "Ex": 4645,
      "ĠSunday": 4646,
      "agger": 4647,
      "Ġresolved": 4648,
      "empl": 4649,
      "Ġnecessity": 4650,
      "Ġloose": 4651,
      "Are": 4652,
      "Ġweary": 4653,
      "ĠUncle": 4654,
      "ĠMajor": 4655,
      "Ġasleep": 4656,
      "hamed": 4657,
      "Ġunknown": 4658,
      "Ġgrim": 4659,
      "ĠHel": 4660,
      "ĠAh": 4661,
      "ois": 4662,
      "hal": 4663,
      "Ġlone": 4664,
      "Ġimagination": 4665,
      "Ġprice": 4666,
      "ads": 4667,
      "Ġchoose": 4668,
      "Ġcheck": 4669,
      "ĠArthur": 4670,
      "Ġwholly": 4671,
      "Ġstones": 4672,
      "mes": 4673,
      "ĠRoman": 4674,
      "rer": 4675,
      "Ġamaz": 4676,
      "Or": 4677,
      "wick": 4678,
      "Ġrooms": 4679,
      "Ġboats": 4680,
      "enough": 4681,
      "Ġflower": 4682,
      "ĠTO": 4683,
      "Have": 4684,
      "ĠLouis": 4685,
      "pon": 4686,
      "ĠDor": 4687,
      "osen": 4688,
      "ĠCourt": 4689,
      "onsieur": 4690,
      "Ġhighest": 4691,
      "reason": 4692,
      "Ġmarch": 4693,
      "Ġscience": 4694,
      "icy": 4695,
      "irect": 4696,
      "Ġrecoll": 4697,
      "atched": 4698,
      "having": 4699,
      "line": 4700,
      "alian": 4701,
      "agon": 4702,
      "ecause": 4703,
      "Ġresist": 4704,
      "Ġinterested": 4705,
      "Ġpriest": 4706,
      "Ġpossessed": 4707,
      "Ġfac": 4708,
      "itch": 4709,
      ";\"": 4710,
      "aches": 4711,
      "ET": 4712,
      "atory": 4713,
      "mist": 4714,
      "return": 4715,
      "ĠBob": 4716,
      "Ġrub": 4717,
      "aming": 4718,
      "inced": 4719,
      "Ġcaut": 4720,
      "ulate": 4721,
      "Ġinstantly": 4722,
      "itchen": 4723,
      "acks": 4724,
      "Ġsche": 4725,
      "Ġcentury": 4726,
      "fin": 4727,
      "Ġinformation": 4728,
      "Ġpresented": 4729,
      "iation": 4730,
      "Ġruin": 4731,
      "cknow": 4732,
      "Ġprinciple": 4733,
      "yr": 4734,
      "Ġcig": 4735,
      "Ġunfortun": 4736,
      "Ġdollars": 4737,
      "ollow": 4738,
      "hus": 4739,
      "ae": 4740,
      "ĠSat": 4741,
      "Ġextent": 4742,
      "andy": 4743,
      "Ġvoices": 4744,
      "alt": 4745,
      "same": 4746,
      "Ġexceed": 4747,
      "ointment": 4748,
      "arse": 4749,
      "Ġcredit": 4750,
      "Ġaccompl": 4751,
      "Ġcontrary": 4752,
      "Ġdying": 4753,
      "Ġghost": 4754,
      "vention": 4755,
      "Ġmurmured": 4756,
      "Ġexcited": 4757,
      "gentle": 4758,
      "natural": 4759,
      "rich": 4760,
      "Ġstars": 4761,
      "Ġacknow": 4762,
      "Ġnodded": 4763,
      "Ġearli": 4764,
      "uls": 4765,
      "eff": 4766,
      "uel": 4767,
      "Ġasking": 4768,
      "ĠPh": 4769,
      "ĠScott": 4770,
      "Ġdescribed": 4771,
      "Ġextraordinary": 4772,
      "Ġblank": 4773,
      "present": 4774,
      "Ġmood": 4775,
      "Ġclearly": 4776,
      "ĠAugust": 4777,
      "Ġdoors": 4778,
      "mir": 4779,
      "Ġcult": 4780,
      "omin": 4781,
      "equ": 4782,
      "matter": 4783,
      "ares": 4784,
      "called": 4785,
      "Ġmult": 4786,
      "13": 4787,
      "Ġclosely": 4788,
      "ĠGo": 4789,
      "Ġease": 4790,
      "Ġsprang": 4791,
      "Ġeast": 4792,
      "Ġsaf": 4793,
      "ĠThomas": 4794,
      "Ġenemies": 4795,
      "het": 4796,
      "ĠState": 4797,
      "cean": 4798,
      "Ġcurt": 4799,
      "Ġunivers": 4800,
      "lands": 4801,
      "Ġstrike": 4802,
      "ĠHowever": 4803,
      "ĠIndians": 4804,
      "Ġproduce": 4805,
      "Ġprisoner": 4806,
      "ĠHam": 4807,
      "Ġretreat": 4808,
      "awn": 4809,
      "itz": 4810,
      "Ġvoy": 4811,
      "pless": 4812,
      "Ġmurder": 4813,
      "Ġcrew": 4814,
      "ID": 4815,
      "US": 4816,
      "udge": 4817,
      "win": 4818,
      "Un": 4819,
      "acters": 4820,
      "Ġkindness": 4821,
      "Ġlake": 4822,
      "utation": 4823,
      "yet": 4824,
      "Ġanger": 4825,
      "Ġtrad": 4826,
      "Look": 4827,
      "overy": 4828,
      "Ġdignity": 4829,
      "lie": 4830,
      "Ġreasons": 4831,
      "ollo": 4832,
      "Ġahead": 4833,
      "Ġthrust": 4834,
      "Ġskin": 4835,
      "Ġrelation": 4836,
      "find": 4837,
      "Ġelder": 4838,
      "Ġere": 4839,
      "Ġended": 4840,
      "Ġsmooth": 4841,
      "Ġetc": 4842,
      "rog": 4843,
      "Ġinquired": 4844,
      "oused": 4845,
      "Ġsplendid": 4846,
      "Ġassert": 4847,
      "quite": 4848,
      "Lord": 4849,
      "ĠIndeed": 4850,
      "Ġprocess": 4851,
      "Ġpill": 4852,
      "ĠComm": 4853,
      "Ġconsequence": 4854,
      "Ġexped": 4855,
      "vious": 4856,
      "oft": 4857,
      "Ġuseful": 4858,
      "uce": 4859,
      "Ġquarrel": 4860,
      "izing": 4861,
      "Ġacquaintance": 4862,
      "Ġworn": 4863,
      "ilst": 4864,
      "14": 4865,
      "got": 4866,
      "Ġstup": 4867,
      "ĠAunt": 4868,
      "Ġshr": 4869,
      "Ġgay": 4870,
      "ulse": 4871,
      "Ġprofession": 4872,
      "Can": 4873,
      "Ġbrill": 4874,
      "ĠFred": 4875,
      "ĠWhile": 4876,
      "iable": 4877,
      "Ġwisdom": 4878,
      "Ġintention": 4879,
      "Ġcentre": 4880,
      "Ġ20": 4881,
      "Ġcomfortable": 4882,
      "Ġwaters": 4883,
      "Ġelect": 4884,
      "Ġassoci": 4885,
      "Ġwithd": 4886,
      "Ġcoff": 4887,
      "Ġarrival": 4888,
      "ĠCo": 4889,
      "Ġdelay": 4890,
      "Ġrapidly": 4891,
      "oubted": 4892,
      "Ġfamous": 4893,
      "Ġcapable": 4894,
      "Ġbridge": 4895,
      "owned": 4896,
      "Ġtreated": 4897,
      "Ġexplan": 4898,
      "Ġ(_": 4899,
      "Ġbetray": 4900,
      "Ġinterrupted": 4901,
      "Ġrisk": 4902,
      "Ġplant": 4903,
      "Ġfought": 4904,
      "Ġclouds": 4905,
      "Ġmessage": 4906,
      "Ġmach": 4907,
      "common": 4908,
      "Ġclever": 4909,
      "Ġconscience": 4910,
      "Illustr": 4911,
      "Ġcorrespond": 4912,
      "acles": 4913,
      "anything": 4914,
      "ĠDoctor": 4915,
      "ĠJew": 4916,
      "Ġamid": 4917,
      "Pr": 4918,
      "Ġplenty": 4919,
      "asing": 4920,
      "Ġimmense": 4921,
      "Ġdelicate": 4922,
      "Ġdeeply": 4923,
      "almost": 4924,
      "Ġguide": 4925,
      "Ġcareful": 4926,
      "Ġlarger": 4927,
      "aging": 4928,
      "Ġdesired": 4929,
      "Ġmilitary": 4930,
      "RS": 4931,
      "Ġpardon": 4932,
      "Ġescaped": 4933,
      "Ġwed": 4934,
      "Ġindif": 4935,
      "onn": 4936,
      "Ġfreedom": 4937,
      "Ġpressed": 4938,
      "ĠOnly": 4939,
      "olution": 4940,
      "Ġfemale": 4941,
      "ĠMont": 4942,
      "ateful": 4943,
      "usual": 4944,
      "Ġburning": 4945,
      "IG": 4946,
      "Ġcompletely": 4947,
      "Ġdogs": 4948,
      "Ġaccepted": 4949,
      "sent": 4950,
      "satisf": 4951,
      "uments": 4952,
      "Ġmud": 4953,
      "born": 4954,
      "Ġvision": 4955,
      "ators": 4956,
      "question": 4957,
      "ĠPort": 4958,
      "Ġsoftly": 4959,
      "Qu": 4960,
      "Ġholy": 4961,
      "Ġfrank": 4962,
      "ĠSch": 4963,
      "Ġaccompan": 4964,
      "Ġperform": 4965,
      "mis": 4966,
      "rived": 4967,
      "Ġnur": 4968,
      "love": 4969,
      "eous": 4970,
      "Ġhorror": 4971,
      "uding": 4972,
      "ĠPhilip": 4973,
      "Ġbas": 4974,
      "utch": 4975,
      "Ġchamber": 4976,
      "Ġcorrect": 4977,
      "ĠPer": 4978,
      "ĠJul": 4979,
      "Ġseldom": 4980,
      "disc": 4981,
      "Ġpor": 4982,
      "Ġneeded": 4983,
      "Ġtheory": 4984,
      "wa": 4985,
      "Ġrecord": 4986,
      "Ġrum": 4987,
      "Ġrushed": 4988,
      "Ġcomr": 4989,
      "Ġflight": 4990,
      "Ġkingdom": 4991,
      "ĠLaw": 4992,
      "Ġmistress": 4993,
      "Ġ[_": 4994,
      "oh": 4995,
      "point": 4996,
      "Ġbodies": 4997,
      "Ġhosp": 4998,
      "fire": 4999,
      "Ġgained": 5000,
      "Ġbosom": 5001,
      "sch": 5002,
      "Ġvirtue": 5003,
      "urity": 5004,
      "ĠJan": 5005,
      "Ġdawn": 5006,
      "Ġrepro": 5007,
      "Ġrapid": 5008,
      "Ġpractice": 5009,
      "Ġanxiety": 5010,
      "ĠCal": 5011,
      "Ġmate": 5012,
      "ĠMark": 5013,
      "Ġevident": 5014,
      "ĠJoe": 5015,
      "ĠWor": 5016,
      "Ġvisible": 5017,
      "zy": 5018,
      "ĠTwo": 5019,
      "OW": 5020,
      "Ġma": 5021,
      "others": 5022,
      "acon": 5023,
      "lying": 5024,
      "Ġwhisper": 5025,
      "Ġsevent": 5026,
      "beaut": 5027,
      "ancholy": 5028,
      "EC": 5029,
      "sil": 5030,
      "ration": 5031,
      "armed": 5032,
      "fric": 5033,
      "bridge": 5034,
      "Ġhelped": 5035,
      "eb": 5036,
      "Ġyounger": 5037,
      "rounded": 5038,
      "Ġstrang": 5039,
      "Ġobjects": 5040,
      "Ġwrit": 5041,
      "care": 5042,
      "Nor": 5043,
      "pol": 5044,
      "ential": 5045,
      "stead": 5046,
      "Ġsounds": 5047,
      "oked": 5048,
      "estern": 5049,
      "ta": 5050,
      "Ġsomehow": 5051,
      "Ġcuriosity": 5052,
      "ĠLook": 5053,
      "orts": 5054,
      "Ġcro": 5055,
      "enes": 5056,
      "ca": 5057,
      "Ġhidden": 5058,
      "respect": 5059,
      "Ġassem": 5060,
      "ĠJes": 5061,
      "ĠII": 5062,
      "Ġreligious": 5063,
      "Ġstairs": 5064,
      "ĠEgypt": 5065,
      "Ġhighly": 5066,
      "Ġunable": 5067,
      "oms": 5068,
      "Ġrolled": 5069,
      "Ġgently": 5070,
      "Ġamb": 5071,
      "Ġthroat": 5072,
      "Ġprompt": 5073,
      "Ġstuff": 5074,
      "Ġcolor": 5075,
      "Ġpoetry": 5076,
      "break": 5077,
      "ĠAnt": 5078,
      "Ġtells": 5079,
      "Ġhit": 5080,
      "Ġinnocent": 5081,
      "==": 5082,
      "anim": 5083,
      "alph": 5084,
      "ĠCor": 5085,
      "Ġmeas": 5086,
      "Ġutterly": 5087,
      "Ġgrief": 5088,
      "Ġashamed": 5089,
      "Ġmiserable": 5090,
      "Ġgenius": 5091,
      "lished": 5092,
      "sper": 5093,
      "Ġsomewhere": 5094,
      "Ġamuse": 5095,
      "nes": 5096,
      "Ġsafety": 5097,
      "arry": 5098,
      "ishes": 5099,
      "Ġsacred": 5100,
      "uten": 5101,
      "Ġcurrent": 5102,
      "ĠHave": 5103,
      "Ġhadn": 5104,
      "umes": 5105,
      "Ġmembers": 5106,
      "Christ": 5107,
      "atively": 5108,
      "Ġrefer": 5109,
      "Ġbag": 5110,
      "ization": 5111,
      "Ġtrail": 5112,
      "Ġbaby": 5113,
      "Just": 5114,
      "sue": 5115,
      "Ġtight": 5116,
      "Ġchoice": 5117,
      "Ġprinciples": 5118,
      "Ġstepped": 5119,
      "Illustration": 5120,
      "20": 5121,
      "ĠGrace": 5122,
      "Ġvolume": 5123,
      "Ġbearing": 5124,
      "ĠCle": 5125,
      "Ġspare": 5126,
      "Ġsomebody": 5127,
      "Ġtot": 5128,
      "Ġfee": 5129,
      "cles": 5130,
      "Ġaccustomed": 5131,
      "Ġfrightened": 5132,
      "ĠMal": 5133,
      "Ġcontempt": 5134,
      "Ġfinger": 5135,
      "Go": 5136,
      "Ġlonely": 5137,
      "const": 5138,
      "Ġforgot": 5139,
      "inent": 5140,
      "Ġinvol": 5141,
      "hon": 5142,
      "hind": 5143,
      "Ġfigures": 5144,
      "tow": 5145,
      "ilities": 5146,
      "Com": 5147,
      "unted": 5148,
      "ĠLittle": 5149,
      "Ġexcuse": 5150,
      "Ġplaying": 5151,
      "Ġpipe": 5152,
      "Ġfold": 5153,
      "among": 5154,
      "irgin": 5155,
      "Ġadop": 5156,
      "Ġscorn": 5157,
      "ĠLy": 5158,
      "English": 5159,
      "rand": 5160,
      "Ġaband": 5161,
      "Ġarranged": 5162,
      "Ġobtained": 5163,
      "Ġdistr": 5164,
      "ountain": 5165,
      "fessor": 5166,
      "Ġremoved": 5167,
      "Ġweap": 5168,
      "rifice": 5169,
      "Ġneighbour": 5170,
      "Ġwondered": 5171,
      "Ġrespons": 5172,
      "van": 5173,
      "izab": 5174,
      "Ġstiff": 5175,
      "Ġrust": 5176,
      "spec": 5177,
      "ĠIrish": 5178,
      "Ġ186": 5179,
      "since": 5180,
      "Ġhut": 5181,
      "lex": 5182,
      "Ġmanif": 5183,
      "Ġsentiment": 5184,
      "Ġlit": 5185,
      "Ġspend": 5186,
      "Ġtriumph": 5187,
      "cor": 5188,
      "white": 5189,
      "Ġbought": 5190,
      "Ġgets": 5191,
      "Ġentrance": 5192,
      "Ġinfinite": 5193,
      "ege": 5194,
      "ĠEarl": 5195,
      "Ġsigns": 5196,
      "Ġ...": 5197,
      "Ġenthus": 5198,
      "19": 5199,
      "Ġrude": 5200,
      "however": 5201,
      "Ġfeatures": 5202,
      "Ġproposed": 5203,
      "Ġcircle": 5204,
      "Ġmajor": 5205,
      "Ġapproached": 5206,
      "hor": 5207,
      "Ġtent": 5208,
      "Ġcritic": 5209,
      "Ġrecei": 5210,
      "Ġgradually": 5211,
      "Ġsuppl": 5212,
      "Ġunto": 5213,
      "sa": 5214,
      "ĠSomet": 5215,
      "ĠBesides": 5216,
      "Ġnerv": 5217,
      "ĠST": 5218,
      "uries": 5219,
      "Ġmeal": 5220,
      "morning": 5221,
      "ĠMin": 5222,
      "erves": 5223,
      "ourn": 5224,
      "Ġ{": 5225,
      "Ġsell": 5226,
      "Ġrow": 5227,
      "Ġextremely": 5228,
      "ule": 5229,
      "garet": 5230,
      "ounce": 5231,
      "Ġexhib": 5232,
      "Ġthoroughly": 5233,
      "Ġbringing": 5234,
      "Ġeducation": 5235,
      "Ġaddressed": 5236,
      "quar": 5237,
      "Ġobst": 5238,
      "Ġinhabit": 5239,
      "onstr": 5240,
      "Ġunf": 5241,
      "Ġconsideration": 5242,
      "ivity": 5243,
      "ĠChe": 5244,
      "bow": 5245,
      "ilty": 5246,
      "Ġfifteen": 5247,
      "done": 5248,
      "Ġgreet": 5249,
      "asions": 5250,
      "Ġsour": 5251,
      "Ġshade": 5252,
      "Ġhom": 5253,
      "Ġstories": 5254,
      "ĠBlack": 5255,
      "ref": 5256,
      "Ġburied": 5257,
      "ĠBet": 5258,
      "table": 5259,
      "oqu": 5260,
      "Ġing": 5261,
      "Ġfriendly": 5262,
      "ixt": 5263,
      "Ġbra": 5264,
      "ĠGreek": 5265,
      "strong": 5266,
      "Ġthunder": 5267,
      "years": 5268,
      "Ġwishes": 5269,
      "Ġwound": 5270,
      "power": 5271,
      "Con": 5272,
      "Ġshowing": 5273,
      "utions": 5274,
      "asted": 5275,
      "ĠSpanish": 5276,
      "person": 5277,
      "Ġinstruct": 5278,
      "Ġswept": 5279,
      "AY": 5280,
      "ids": 5281,
      "ama": 5282,
      "acqu": 5283,
      "ĠWhite": 5284,
      "Ġcitiz": 5285,
      "Tis": 5286,
      "ĠMer": 5287,
      "Ġalarm": 5288,
      "Ġshock": 5289,
      "Ġpublished": 5290,
      "Ġchosen": 5291,
      "Ġsubjects": 5292,
      "nel": 5293,
      "Ġfields": 5294,
      "Ġscream": 5295,
      "Ġspr": 5296,
      "Ġquality": 5297,
      "inger": 5298,
      "Ġreckon": 5299,
      "name": 5300,
      "sk": 5301,
      "Ġparties": 5302,
      "Ġflying": 5303,
      "Ġunhappy": 5304,
      "Ġwaste": 5305,
      "Ġhurry": 5306,
      "Ġhole": 5307,
      "Ġnewsp": 5308,
      "ĠRev": 5309,
      "Ġaspect": 5310,
      "Ġfaithful": 5311,
      "plex": 5312,
      "Ġinclined": 5313,
      "Ġbecoming": 5314,
      "Ġrendered": 5315,
      "Ġsheep": 5316,
      "Ġcheeks": 5317,
      "cut": 5318,
      "Ġmystery": 5319,
      "ault": 5320,
      "ĠLucy": 5321,
      "Ġenc": 5322,
      "Ġapproach": 5323,
      "appear": 5324,
      "Ġplainly": 5325,
      "turned": 5326,
      "boat": 5327,
      "ĠFer": 5328,
      "Ġgain": 5329,
      "Le": 5330,
      "bon": 5331,
      "Ġproportion": 5332,
      "Ġstout": 5333,
      "Ġreward": 5334,
      "Ġslept": 5335,
      "ĠSmith": 5336,
      "gen": 5337,
      "po": 5338,
      "cho": 5339,
      "ĠSec": 5340,
      "ĠJane": 5341,
      "eding": 5342,
      "Ġuneas": 5343,
      "Ġslightly": 5344,
      "Ġjealous": 5345,
      "ĠRuss": 5346,
      "Ġflung": 5347,
      "iture": 5348,
      "Ġreflect": 5349,
      "Ġbecomes": 5350,
      "Ġnotion": 5351,
      "ograph": 5352,
      "Ġpicked": 5353,
      "acked": 5354,
      "aur": 5355,
      "itated": 5356,
      "Ġgazed": 5357,
      "Ġincreased": 5358,
      "left": 5359,
      "Ġsuffering": 5360,
      "Ġdivine": 5361,
      "Ġkitchen": 5362,
      "Ġconnected": 5363,
      "_;": 5364,
      "aints": 5365,
      "Ġfled": 5366,
      "Ġobserve": 5367,
      "Ġredu": 5368,
      "pleasant": 5369,
      "aks": 5370,
      "While": 5371,
      "hered": 5372,
      "lot": 5373,
      "Ġrush": 5374,
      "Ġabsurd": 5375,
      "ĠDavid": 5376,
      "Ġdoctr": 5377,
      "gone": 5378,
      "olic": 5379,
      "ĠAre": 5380,
      "Ġavoid": 5381,
      "Ġolder": 5382,
      "non": 5383,
      "Ġlaughter": 5384,
      "ĠBer": 5385,
      "ells": 5386,
      "post": 5387,
      "May": 5388,
      "Ġprecious": 5389,
      "ILL": 5390,
      "took": 5391,
      "lebr": 5392,
      "Ġrage": 5393,
      "Ġbehold": 5394,
      "Ġnumbers": 5395,
      "Ġlabour": 5396,
      "Ġrear": 5397,
      "Ġpractical": 5398,
      "ette": 5399,
      "Ġcheek": 5400,
      "Ġhabits": 5401,
      "aling": 5402,
      "Ġpushed": 5403,
      "omer": 5404,
      "Ġblame": 5405,
      "Ġconfusion": 5406,
      "udd": 5407,
      "consider": 5408,
      "Ġkissed": 5409,
      "Ġmanners": 5410,
      "dep": 5411,
      "icted": 5412,
      "inks": 5413,
      "ephen": 5414,
      "ode": 5415,
      "ĠFort": 5416,
      "Ġimpress": 5417,
      "Ġstared": 5418,
      "ocr": 5419,
      "Ġadmiration": 5420,
      "Ġprevious": 5421,
      "prise": 5422,
      "why": 5423,
      "Ġadventure": 5424,
      "John": 5425,
      "EAR": 5426,
      "ĠHim": 5427,
      "Ġdance": 5428,
      "whether": 5429,
      "herself": 5430,
      "Ġfer": 5431,
      "Ġactive": 5432,
      "shine": 5433,
      "ĠSqu": 5434,
      "Ġfever": 5435,
      "aning": 5436,
      "Ġbay": 5437,
      "Ġbrow": 5438,
      "Ġduties": 5439,
      "Ġtitle": 5440,
      "girl": 5441,
      "Ġconclusion": 5442,
      "Ġemotion": 5443,
      "Ġcharming": 5444,
      "Ġlately": 5445,
      "ĠMartin": 5446,
      "gener": 5447,
      "necessary": 5448,
      "olf": 5449,
      "ĠMag": 5450,
      "Ġintense": 5451,
      "udes": 5452,
      "Ġexha": 5453,
      "Ġaim": 5454,
      "isions": 5455,
      "Ġcrim": 5456,
      "Ġprim": 5457,
      "Ġcharacters": 5458,
      "Ġmankind": 5459,
      "Ġsteep": 5460,
      "Ġlest": 5461,
      "usp": 5462,
      "Ġemployed": 5463,
      "anny": 5464,
      "Ġthroughout": 5465,
      "Ġabroad": 5466,
      "Ġbreaking": 5467,
      "ension": 5468,
      "Ġhers": 5469,
      "AND": 5470,
      "myself": 5471,
      "Ġreturning": 5472,
      "elling": 5473,
      "Ġflag": 5474,
      "ĠEdward": 5475,
      "Ġwings": 5476,
      "Ġstrict": 5477,
      "ĠNothing": 5478,
      "uable": 5479,
      "enger": 5480,
      "rier": 5481,
      "arded": 5482,
      "Ġlistening": 5483,
      "Ġmatch": 5484,
      "Ġquant": 5485,
      "Ġdelighted": 5486,
      "ĠGreen": 5487,
      "Ġprobable": 5488,
      "incess": 5489,
      "coming": 5490,
      "achel": 5491,
      "Ġclub": 5492,
      "Ġdisappeared": 5493,
      "Ġsons": 5494,
      "Ġcattle": 5495,
      "Ġaccompanied": 5496,
      "Ġmysterious": 5497,
      "Ġheap": 5498,
      "ĠArch": 5499,
      "Ġcreatures": 5500,
      "Ġcirc": 5501,
      "pter": 5502,
      "Ġstrongly": 5503,
      "ums": 5504,
      "utenant": 5505,
      "Ġcliff": 5506,
      "izabeth": 5507,
      "Ġmal": 5508,
      "real": 5509,
      "ĠAnn": 5510,
      "lay": 5511,
      "amps": 5512,
      "Ġforgive": 5513,
      "hearted": 5514,
      "Ab": 5515,
      "Ġclergy": 5516,
      "ĠKe": 5517,
      "Ġfriendship": 5518,
      "phe": 5519,
      "ĠPal": 5520,
      "hip": 5521,
      "Ġteach": 5522,
      "ella": 5523,
      "----\"": 5524,
      "ĠWood": 5525,
      "Ġstriking": 5526,
      "ache": 5527,
      "believe": 5528,
      "Ġapt": 5529,
      "ĠParliament": 5530,
      "Ġsteady": 5531,
      "Ġargument": 5532,
      "Ġphysical": 5533,
      "ĠRom": 5534,
      "Ġdrift": 5535,
      "mo": 5536,
      "vy": 5537,
      "Ġsouls": 5538,
      "Ed": 5539,
      "ills": 5540,
      "Ġproject": 5541,
      "Ġvers": 5542,
      "Ġreven": 5543,
      "Ġindepend": 5544,
      "Ġvoyage": 5545,
      "Ġdisplay": 5546,
      "ller": 5547,
      "Ġknock": 5548,
      "early": 5549,
      "Ġtrial": 5550,
      "plain": 5551,
      "Ġ25": 5552,
      "Ġfeared": 5553,
      "retch": 5554,
      "ores": 5555,
      "Ġbase": 5556,
      "Ġtravel": 5557,
      "appeared": 5558,
      "brought": 5559,
      "Ġslave": 5560,
      "Am": 5561,
      "alls": 5562,
      "Ġbowed": 5563,
      "ĠRose": 5564,
      "position": 5565,
      "ĠAfric": 5566,
      "Ġcottage": 5567,
      "Ġrang": 5568,
      "ĠScotland": 5569,
      "rather": 5570,
      "ulgar": 5571,
      "ĠSan": 5572,
      "rences": 5573,
      "Ġraise": 5574,
      "Ġforehead": 5575,
      "Ġsolid": 5576,
      "Every": 5577,
      "Ġenergy": 5578,
      "Ġfo": 5579,
      "Ġspark": 5580,
      "Ġestablish": 5581,
      "yes": 5582,
      "Ġaver": 5583,
      "urance": 5584,
      "lls": 5585,
      "Ġrestr": 5586,
      "ĠThough": 5587,
      "Ġblaz": 5588,
      "dri": 5589,
      "Ġwhilst": 5590,
      ",âĢĻ": 5591,
      "Ġarose": 5592,
      "ago": 5593,
      "ĠLong": 5594,
      "Ġclo": 5595,
      "Ġends": 5596,
      "Ġminister": 5597,
      "Ġdistinguished": 5598,
      "Ġdesperate": 5599,
      "Ġaddition": 5600,
      "Ġimmediate": 5601,
      "ulations": 5602,
      "Ġliterature": 5603,
      "Ġmale": 5604,
      "onsense": 5605,
      "character": 5606,
      "ĠSoci": 5607,
      "Ġsufficiently": 5608,
      "hands": 5609,
      "Ġhint": 5610,
      "gate": 5611,
      "arth": 5612,
      "Ġindul": 5613,
      "Ġconcerning": 5614,
      "indeed": 5615,
      "Ġpuzz": 5616,
      "Ġdistress": 5617,
      "Ġappreci": 5618,
      "Ġspl": 5619,
      "bour": 5620,
      "arted": 5621,
      "Ġnatives": 5622,
      "inate": 5623,
      "ecture": 5624,
      "Ġphr": 5625,
      "Ġnotes": 5626,
      "Ġframe": 5627,
      "riot": 5628,
      "Ġgra": 5629,
      "Ġneeds": 5630,
      "Ġmagnific": 5631,
      "Ġexchan": 5632,
      "Ġdreams": 5633,
      "astern": 5634,
      "Ġcaval": 5635,
      "understand": 5636,
      "ĠCastle": 5637,
      "Ġeverywhere": 5638,
      "Ġshows": 5639,
      "Ġconven": 5640,
      "ĠHon": 5641,
      "Ġqueen": 5642,
      "Ġplans": 5643,
      "Lady": 5644,
      "Ġterm": 5645,
      "Ġmanaged": 5646,
      "orthern": 5647,
      "Ġaffected": 5648,
      "ds": 5649,
      "Ġpraise": 5650,
      "var": 5651,
      "Ġrelations": 5652,
      "Ġrender": 5653,
      "Ġprofound": 5654,
      "Ġwhist": 5655,
      "Ġ30": 5656,
      "Our": 5657,
      "ĠGovernment": 5658,
      "Ġchest": 5659,
      "Ġintim": 5660,
      "Ġwretched": 5661,
      "Ġmas": 5662,
      "Ġcalls": 5663,
      "Ġfrequently": 5664,
      "Ġhal": 5665,
      "Ġcharm": 5666,
      "Ġmelancholy": 5667,
      "hur": 5668,
      "Ġsinging": 5669,
      "umped": 5670,
      "Ġqueer": 5671,
      "ĠRalph": 5672,
      "ĠMother": 5673,
      "anches": 5674,
      "Nothing": 5675,
      "Ġgods": 5676,
      "Ġcraft": 5677,
      "Ġprincipal": 5678,
      "ĠTur": 5679,
      "aunt": 5680,
      "Ġviolent": 5681,
      "ban": 5682,
      "appro": 5683,
      "Ġgaze": 5684,
      "Ġexplanation": 5685,
      "Ġskill": 5686,
      "Ġweakness": 5687,
      "Ġchiefly": 5688,
      "Ġnumerous": 5689,
      "onds": 5690,
      "Ġbree": 5691,
      "ĠAg": 5692,
      "otes": 5693,
      "Ġriding": 5694,
      "ĠFrancis": 5695,
      "Ġcontinue": 5696,
      "Ġconvinced": 5697,
      "iel": 5698,
      "ĠNat": 5699,
      "Ġconsent": 5700,
      "AP": 5701,
      "Col": 5702,
      "Ġwhenever": 5703,
      "sect": 5704,
      "pen": 5705,
      "ĠMil": 5706,
      "Ġperceived": 5707,
      "onies": 5708,
      "Ġming": 5709,
      "ĠSil": 5710,
      "ĠDun": 5711,
      "Ġham": 5712,
      "stru": 5713,
      "Ġsuggest": 5714,
      "rock": 5715,
      "ĠMen": 5716,
      "arewell": 5717,
      "otted": 5718,
      "Ġleaned": 5719,
      "elle": 5720,
      "Ġknife": 5721,
      "burg": 5722,
      "ĠÂ": 5723,
      "Ġlights": 5724,
      "Ġshining": 5725,
      "Ġsank": 5726,
      "arms": 5727,
      "Ġprepar": 5728,
      "whole": 5729,
      "Ġuttered": 5730,
      "ĠIm": 5731,
      "Ġbrothers": 5732,
      "osal": 5733,
      "30": 5734,
      "Ġjob": 5735,
      "Ġattitude": 5736,
      "ĠPo": 5737,
      "Ġfinal": 5738,
      "Ġassistance": 5739,
      "home": 5740,
      "Ġpoem": 5741,
      "Ġpatient": 5742,
      "ĠIndia": 5743,
      "Ġgenerous": 5744,
      "arrass": 5745,
      "ĠIre": 5746,
      "Ġdiscovery": 5747,
      "Ġhelpless": 5748,
      "Ġorn": 5749,
      "Ġsupply": 5750,
      "Ġinterview": 5751,
      "ĠBefore": 5752,
      "Ġabrupt": 5753,
      "Ġarrest": 5754,
      "uced": 5755,
      "hend": 5756,
      "Ġinfer": 5757,
      "Ġprayer": 5758,
      "each": 5759,
      "Ġworship": 5760,
      "geon": 5761,
      "ĠGrand": 5762,
      "Ġgest": 5763,
      "black": 5764,
      "Ġsees": 5765,
      "ĠĠĠĠĠĠĠĠĠĠĠ": 5766,
      "Ġrope": 5767,
      "Ġeffects": 5768,
      "Ġsuspicion": 5769,
      "istory": 5770,
      "live": 5771,
      "Ġmisery": 5772,
      "och": 5773,
      "sey": 5774,
      "Ġprotect": 5775,
      "Ġconstant": 5776,
      "Ġunfortunate": 5777,
      "Ġinformed": 5778,
      "Ġpurp": 5779,
      "Ġenorm": 5780,
      "yard": 5781,
      "bably": 5782,
      "Ġviews": 5783,
      "Ġinterests": 5784,
      "saw": 5785,
      "Ġblessed": 5786,
      "utter": 5787,
      "---": 5788,
      "tran": 5789,
      "liness": 5790,
      "Ġturns": 5791,
      "bye": 5792,
      "Ġbend": 5793,
      "ĠLove": 5794,
      "small": 5795,
      "peror": 5796,
      "Ġhastily": 5797,
      "amm": 5798,
      "worthy": 5799,
      "Ġmild": 5800,
      "Ġrefuse": 5801,
      "Ġtype": 5802,
      "lady": 5803,
      "Ġemer": 5804,
      "ĠThose": 5805,
      "succ": 5806,
      "Ġartist": 5807,
      "Ġsecure": 5808,
      "Ġhollow": 5809,
      "ele": 5810,
      "Ġobsc": 5811,
      "echan": 5812,
      "Ġmember": 5813,
      "ata": 5814,
      "making": 5815,
      "idering": 5816,
      "ĠFirst": 5817,
      "ĠMc": 5818,
      "Ġmounted": 5819,
      "irs": 5820,
      "Ġactual": 5821,
      "Ġpreced": 5822,
      "icer": 5823,
      "Ġefforts": 5824,
      "Ġconvey": 5825,
      "ĠEast": 5826,
      "ĠOnce": 5827,
      "Cha": 5828,
      "prom": 5829,
      "irit": 5830,
      "Ġdoubtless": 5831,
      "Ġseries": 5832,
      "Ġcolumn": 5833,
      "Ġparents": 5834,
      "Ġegg": 5835,
      "exc": 5836,
      "Ġacquainted": 5837,
      "Ġliterary": 5838,
      "Ġcrime": 5839,
      "ique": 5840,
      "Ġuseless": 5841,
      "Ġpil": 5842,
      "ese": 5843,
      "Ġansw": 5844,
      "Ġmuttered": 5845,
      "Ġresumed": 5846,
      "Ġsetting": 5847,
      "rors": 5848,
      "Ġprecise": 5849,
      "ugh": 5850,
      "engers": 5851,
      "Ġarmed": 5852,
      "Ġannounced": 5853,
      "fr": 5854,
      "Ġeagerly": 5855,
      "Ġpred": 5856,
      "ĠHard": 5857,
      "Ġhanded": 5858,
      "De": 5859,
      "Ġhorrible": 5860,
      "Ġlux": 5861,
      "Ġfleet": 5862,
      "VI": 5863,
      "rated": 5864,
      "Ġlamp": 5865,
      "lord": 5866,
      "maid": 5867,
      "Ġtow": 5868,
      "Ġunderstanding": 5869,
      "days": 5870,
      "Ġdomestic": 5871,
      "ands": 5872,
      "vals": 5873,
      "Ġstretched": 5874,
      "Thus": 5875,
      "edy": 5876,
      "osure": 5877,
      "Ġtrembling": 5878,
      "agree": 5879,
      "Ġthrone": 5880,
      "Ġdisposed": 5881,
      "See": 5882,
      "iddle": 5883,
      "Ġmental": 5884,
      "Ġshru": 5885,
      "Ġoccasionally": 5886,
      "Ġflew": 5887,
      "taken": 5888,
      "Ġhell": 5889,
      "bird": 5890,
      "ĠDel": 5891,
      "inity": 5892,
      "Ġthanks": 5893,
      "Ġignorant": 5894,
      "Ġhence": 5895,
      "iving": 5896,
      "dark": 5897,
      "told": 5898,
      "Ġhanging": 5899,
      "Ġdelightful": 5900,
      "cross": 5901,
      "effect": 5902,
      "Ġlighted": 5903,
      "Ġages": 5904,
      "past": 5905,
      "arts": 5906,
      "Ġash": 5907,
      "compan": 5908,
      "Ġgift": 5909,
      "ĠCam": 5910,
      "Ġwaist": 5911,
      "Ġutmost": 5912,
      "dr": 5913,
      "Ġshake": 5914,
      "ertainly": 5915,
      "avy": 5916,
      "Ġtroubles": 5917,
      "Ġshelter": 5918,
      "lim": 5919,
      "Ġwhence": 5920,
      "till": 5921,
      "ington": 5922,
      "Ġprisoners": 5923,
      "sim": 5924,
      "Ġhesitated": 5925,
      "apers": 5926,
      "forth": 5927,
      "Ġascend": 5928,
      "Ġwarning": 5929,
      "Ġmission": 5930,
      "Ġcloth": 5931,
      "ĠBel": 5932,
      "Ġexception": 5933,
      "Ġopinions": 5934,
      "atin": 5935,
      "either": 5936,
      "Ġexert": 5937,
      "ĠTem": 5938,
      "Ġsurrounded": 5939,
      "Ġfatal": 5940,
      "Ġwriter": 5941,
      "Ġleaning": 5942,
      "ĠDave": 5943,
      "Ġbranches": 5944,
      "Ġcomposed": 5945,
      "coat": 5946,
      "antry": 5947,
      "Ġcerem": 5948,
      "igs": 5949,
      "Ġrequest": 5950,
      "inction": 5951,
      "exper": 5952,
      "Ġocean": 5953,
      "Ġdescription": 5954,
      "ĠJesus": 5955,
      "Ġdared": 5956,
      "Bl": 5957,
      "Ġbrilliant": 5958,
      "force": 5959,
      "fell": 5960,
      "Ġunexpected": 5961,
      "Ġprovided": 5962,
      "ĠEn": 5963,
      "Ġimage": 5964,
      "whom": 5965,
      "lease": 5966,
      "outhern": 5967,
      "Ġcord": 5968,
      "ĠHol": 5969,
      "ician": 5970,
      "rous": 5971,
      "tem": 5972,
      "Ġchat": 5973,
      "fortune": 5974,
      "Ġcalc": 5975,
      "Ġretired": 5976,
      "XX": 5977,
      "Ġslipped": 5978,
      "Ġ24": 5979,
      "Ġhunting": 5980,
      "Ġnarr": 5981,
      "11": 5982,
      "ĠWalter": 5983,
      "Ġhistor": 5984,
      "Ġwidow": 5985,
      "Ġintelligence": 5986,
      "Ġperpet": 5987,
      "Ġpainted": 5988,
      "ĠWhich": 5989,
      "Ġexercise": 5990,
      "Pro": 5991,
      "kward": 5992,
      "Ġcries": 5993,
      "Ġguilty": 5994,
      "mosp": 5995,
      "Ġrequire": 5996,
      "ĠItalian": 5997,
      "rific": 5998,
      "Ġvac": 5999,
      "Ġpolice": 6000,
      "ĠTw": 6001,
      "Ġidle": 6002,
      "ĠSy": 6003,
      "Ġhitherto": 6004,
      "Ġiv": 6005,
      "Ġventure": 6006,
      "Ġscheme": 6007,
      "ashington": 6008,
      "ĠĠĠĠĠĠĠĠĠĠĠĠĠĠĠĠĠĠĠĠĠĠĠĠĠĠĠĠĠĠĠĠĠĠĠĠĠĠĠĠ": 6009,
      "Ġintent": 6010,
      "close": 6011,
      "Ġguests": 6012,
      "Ġbeha": 6013,
      "Ġmeat": 6014,
      "ĠSim": 6015,
      "Ġwave": 6016,
      "ĠHal": 6017,
      "Ġrecomm": 6018,
      "Ġillustr": 6019,
      "Ġappointed": 6020,
      "Ġcollect": 6021,
      "Ġrag": 6022,
      "Ġhorn": 6023,
      "Thank": 6024,
      "Ġglorious": 6025,
      "la": 6026,
      "Ġleaf": 6027,
      "Captain": 6028,
      "account": 6029,
      "Ġsorts": 6030,
      "Ġbottle": 6031,
      "Mad": 6032,
      "uated": 6033,
      "Ġsighed": 6034,
      "Ġdeny": 6035,
      "ĠWould": 6036,
      "Ġobtain": 6037,
      "children": 6038,
      "stri": 6039,
      "Ġlikewise": 6040,
      "Ġacted": 6041,
      "twenty": 6042,
      "Ġnearest": 6043,
      "Ġdeliber": 6044,
      "ĠItaly": 6045,
      "Ġfired": 6046,
      "Ġdig": 6047,
      "Ġwarri": 6048,
      "ench": 6049,
      "Ġalike": 6050,
      "amped": 6051,
      "hast": 6052,
      "Ġug": 6053,
      "iform": 6054,
      "Ġwaves": 6055,
      "Ġrecovered": 6056,
      "affect": 6057,
      "Ġours": 6058,
      "MRS": 6059,
      "Ġrange": 6060,
      "six": 6061,
      "Ġshadows": 6062,
      "Ġanywhere": 6063,
      "obody": 6064,
      "ĠProfessor": 6065,
      "Ġassure": 6066,
      "Ġfollows": 6067,
      "stre": 6068,
      "Ġamongst": 6069,
      "both": 6070,
      "Ġlawyer": 6071,
      "uary": 6072,
      "Ġridic": 6073,
      "Ġsubs": 6074,
      "Ġwreck": 6075,
      "Ġinhabitants": 6076,
      "Ġnations": 6077,
      "Ġwheel": 6078,
      "abled": 6079,
      "Ġgrasp": 6080,
      "ĠMany": 6081,
      "erness": 6082,
      "Ġdiscour": 6083,
      "Ġbones": 6084,
      "Ġkinds": 6085,
      "diffic": 6086,
      "Ġshouldn": 6087,
      "ula": 6088,
      "gments": 6089,
      "Ġhousehold": 6090,
      "Ġhumble": 6091,
      "SE": 6092,
      "Ġtransp": 6093,
      "endous": 6094,
      "va": 6095,
      "ĠLife": 6096,
      "regular": 6097,
      "kerchief": 6098,
      "Ġchanges": 6099,
      "aine": 6100,
      "Ġinstr": 6101,
      "Ġestate": 6102,
      "IM": 6103,
      "Ġvariety": 6104,
      "Ġjew": 6105,
      "Char": 6106,
      "lets": 6107,
      "ĠPark": 6108,
      "fellow": 6109,
      "ĠSer": 6110,
      "Yet": 6111,
      "glass": 6112,
      "Ġtroubled": 6113,
      "Ġpainful": 6114,
      "gent": 6115,
      "Ġcoach": 6116,
      "ĠĠĠĠĠĠĠĠĠĠ": 6117,
      "aws": 6118,
      "Ġsuccessful": 6119,
      "----------------": 6120,
      "Ġrights": 6121,
      "ĠMargaret": 6122,
      "ĠMe": 6123,
      "Ġshaking": 6124,
      "pent": 6125,
      "Ġmistaken": 6126,
      "ĠLike": 6127,
      "ĠVer": 6128,
      "Ġscattered": 6129,
      "Ġdescended": 6130,
      "knew": 6131,
      "Ġlands": 6132,
      "high": 6133,
      "ĠRep": 6134,
      "Ġlabor": 6135,
      "doubt": 6136,
      "Ġpatience": 6137,
      "Ġresc": 6138,
      "Ġconcluded": 6139,
      "Ġtal": 6140,
      "particular": 6141,
      "Ġnervous": 6142,
      "acob": 6143,
      "Ġ182": 6144,
      "Ġislands": 6145,
      "ĠEr": 6146,
      "Ġax": 6147,
      "Ġdivided": 6148,
      "Ġcopy": 6149,
      "Ġtrack": 6150,
      "Ġtax": 6151,
      "ĠSl": 6152,
      "Re": 6153,
      "Ġboots": 6154,
      "Br": 6155,
      "olation": 6156,
      "Sh": 6157,
      "ĠFair": 6158,
      "isting": 6159,
      "business": 6160,
      "Ġdefence": 6161,
      "Ġspiritual": 6162,
      "tree": 6163,
      ");": 6164,
      "Ay": 6165,
      "ĠRog": 6166,
      "Ġdate": 6167,
      "Ġdevoted": 6168,
      "Ġestablished": 6169,
      "Ġvanished": 6170,
      "sight": 6171,
      "burn": 6172,
      "Ġcoffee": 6173,
      "Ġwondering": 6174,
      "ĠArab": 6175,
      "atives": 6176,
      "Ġcheerful": 6177,
      "dra": 6178,
      "ends": 6179,
      "Ġpisto": 6180,
      "Ġtide": 6181,
      "import": 6182,
      "ĠThou": 6183,
      "hour": 6184,
      "Ge": 6185,
      "Ġinvest": 6186,
      "lor": 6187,
      "until": 6188,
      "Ġdegrees": 6189,
      "iveness": 6190,
      "apped": 6191,
      "Ġparted": 6192,
      "Ġshone": 6193,
      "Ġsacrifice": 6194,
      "Ġwooden": 6195,
      "ardens": 6196,
      "Ġprosper": 6197,
      "blem": 6198,
      "lau": 6199,
      "Ġnational": 6200,
      "Ġcelebr": 6201,
      "Ġincrease": 6202,
      "except": 6203,
      "steps": 6204,
      "ĠIII": 6205,
      "aughters": 6206,
      "Ġconnection": 6207,
      "Ġgoods": 6208,
      "atre": 6209,
      "Ġfancied": 6210,
      "Ġreference": 6211,
      "ĠFar": 6212,
      "Ġbegged": 6213,
      "Ġcauses": 6214,
      "ailing": 6215,
      "umm": 6216,
      "owder": 6217,
      "Ġflood": 6218,
      "Ġseparate": 6219,
      "Ġven": 6220,
      "vert": 6221,
      "Ġattended": 6222,
      "ifying": 6223,
      "Ġforbid": 6224,
      "Ġattached": 6225,
      "thel": 6226,
      "Ġtransl": 6227,
      "quisite": 6228,
      "Ġanch": 6229,
      "money": 6230,
      "ipper": 6231,
      "Ġhyp": 6232,
      "Indeed": 6233,
      "Ġbeheld": 6234,
      "ĠHelen": 6235,
      "Ġproperly": 6236,
      "ĠSus": 6237,
      "'.": 6238,
      "Ġsunshine": 6239,
      "NE": 6240,
      "also": 6241,
      "poor": 6242,
      "obser": 6243,
      "Ġinsisted": 6244,
      "oof": 6245,
      "ĠBert": 6246,
      "ĠPope": 6247,
      "].": 6248,
      "arling": 6249,
      "Ġdetails": 6250,
      "Ġdrunk": 6251,
      "Ġpan": 6252,
      "Ġmerry": 6253,
      "inet": 6254,
      "Ġflame": 6255,
      "best": 6256,
      "Ġpapa": 6257,
      "cast": 6258,
      "ĠConst": 6259,
      "Ġcared": 6260,
      "mosphere": 6261,
      "Ġcondem": 6262,
      "Ġfreely": 6263,
      "Ġtrace": 6264,
      "Ġpermitted": 6265,
      "Ġpin": 6266,
      "conom": 6267,
      "Ġtied": 6268,
      "Ġcomplex": 6269,
      "Ġdeparture": 6270,
      "oston": 6271,
      "Ġhated": 6272,
      "Ġdifficulties": 6273,
      "piece": 6274,
      "Ġsensible": 6275,
      "othing": 6276,
      "Ġstaring": 6277,
      "ĠMount": 6278,
      "Ġmat": 6279,
      "Ġearlier": 6280,
      "lad": 6281,
      "Ġimprove": 6282,
      "Ġdirected": 6283,
      "ns": 6284,
      "pat": 6285,
      "Ġhopeless": 6286,
      "ienced": 6287,
      "ĠTe": 6288,
      "ĠPat": 6289,
      "ĠAny": 6290,
      "Ġgates": 6291,
      "Ġident": 6292,
      "Ġoccasions": 6293,
      "Ġstupid": 6294,
      "Ġcultiv": 6295,
      "Ġcommanded": 6296,
      "racted": 6297,
      "ĠStephen": 6298,
      "Ġvictory": 6299,
      "Ġbeach": 6300,
      "Ġbul": 6301,
      "mark": 6302,
      "ulted": 6303,
      "Ġintroduced": 6304,
      "mouth": 6305,
      "Ġrenew": 6306,
      "Ġforces": 6307,
      "Ġconsciousness": 6308,
      "Ġimagined": 6309,
      "Ġgravely": 6310,
      "intell": 6311,
      "Ġpron": 6312,
      "dem": 6313,
      "Ġcrying": 6314,
      "ĠUnited": 6315,
      "Ġscr": 6316,
      "Ġremarks": 6317,
      "human": 6318,
      "Ġguest": 6319,
      "Ġses": 6320,
      "Ġsan": 6321,
      "Ġcircumstance": 6322,
      "large": 6323,
      "Ġenjoyed": 6324,
      "ĠBro": 6325,
      "Ġpoison": 6326,
      "**": 6327,
      "subject": 6328,
      "keeper": 6329,
      "Ġnurse": 6330,
      "ĠGra": 6331,
      "oser": 6332,
      "passed": 6333,
      "ĠBab": 6334,
      "othy": 6335,
      "isation": 6336,
      "sea": 6337,
      "Ġugly": 6338,
      "Ġdefend": 6339,
      "Ġsharply": 6340,
      "Ġqualities": 6341,
      "Ġmamma": 6342,
      "ĠVan": 6343,
      "Ġfolks": 6344,
      "Ġknocked": 6345,
      "Sc": 6346,
      "ipping": 6347,
      "hem": 6348,
      "lers": 6349,
      "Ġlion": 6350,
      "Ġpages": 6351,
      "Ġsteadily": 6352,
      "cture": 6353,
      "sued": 6354,
      "Ġloves": 6355,
      "Ġstronger": 6356,
      "produ": 6357,
      "Ġthousands": 6358,
      "ĠCompany": 6359,
      "ura": 6360,
      "Ġsisters": 6361,
      "Ġanyone": 6362,
      "Ġnaked": 6363,
      "cence": 6364,
      "Ġscient": 6365,
      "Ġplate": 6366,
      "Ġwra": 6367,
      "horse": 6368,
      "forward": 6369,
      "pril": 6370,
      "therefore": 6371,
      "Ġhaste": 6372,
      "Ġprivile": 6373,
      "Ġgrateful": 6374,
      "does": 6375,
      "25": 6376,
      "Ġclerk": 6377,
      "ĠJune": 6378,
      "Ġsleeping": 6379,
      "Ġapproaching": 6380,
      "da": 6381,
      "Ġrifle": 6382,
      "Ġsailor": 6383,
      "fashion": 6384,
      "Ġborne": 6385,
      "Ġtrick": 6386,
      "grat": 6387,
      "ELL": 6388,
      "fur": 6389,
      "soon": 6390,
      "Ġcontained": 6391,
      "Ġviolence": 6392,
      "Ġinvent": 6393,
      "Ġregiment": 6394,
      "fig": 6395,
      "Ġsoil": 6396,
      "za": 6397,
      "talk": 6398,
      "Ġtoler": 6399,
      "Ġdiam": 6400,
      "Ġmanage": 6401,
      "Ġaloud": 6402,
      "Nay": 6403,
      "Ġunusual": 6404,
      "words": 6405,
      "Ġdefe": 6406,
      "full": 6407,
      "Ġdiff": 6408,
      "Ġloving": 6409,
      "ĠSpirit": 6410,
      "henomen": 6411,
      "Ġcontempl": 6412,
      "Ġadmire": 6413,
      "leness": 6414,
      "Ġcrept": 6415,
      "Ġfeather": 6416,
      "hundred": 6417,
      "Ġrecover": 6418,
      "Ġdestroyed": 6419,
      "cest": 6420,
      "Ġhunt": 6421,
      "plicity": 6422,
      "Ġvisited": 6423,
      "speak": 6424,
      "ouch": 6425,
      "uit": 6426,
      "orence": 6427,
      "Ġstatement": 6428,
      "Ġlearning": 6429,
      "Ġtear": 6430,
      "ĠPet": 6431,
      "Ġacknowled": 6432,
      "box": 6433,
      "Ġhungry": 6434,
      "Ġcanoe": 6435,
      "mag": 6436,
      "Ġlock": 6437,
      "Ġnegro": 6438,
      "Ġcounsel": 6439,
      "Ġfears": 6440,
      "Ġrested": 6441,
      "open": 6442,
      "dig": 6443,
      "____": 6444,
      "Ġmovements": 6445,
      "Ġeternal": 6446,
      "ĠBishop": 6447,
      "whose": 6448,
      "Ġpier": 6449,
      "Ġseriously": 6450,
      "Ġresults": 6451,
      "EM": 6452,
      "ĠSal": 6453,
      "Ġideal": 6454,
      "Ġleader": 6455,
      "Ġroar": 6456,
      "circumst": 6457,
      "Ġgent": 6458,
      "Ġmarket": 6459,
      "Ġmortal": 6460,
      "Ġlap": 6461,
      "Ġslaves": 6462,
      "Ġbade": 6463,
      "everything": 6464,
      "ships": 6465,
      "evil": 6466,
      "aned": 6467,
      "hael": 6468,
      "iasm": 6469,
      "illing": 6470,
      "hers": 6471,
      "bler": 6472,
      "Ġpursued": 6473,
      "Ġgazing": 6474,
      "Ġ--": 6475,
      "Ġengine": 6476,
      "geant": 6477,
      "Ġtreasure": 6478,
      "ĠDes": 6479,
      "ĠĠĠĠĠĠĠĠĠĠĠĠĠĠĠĠĠĠĠĠĠ": 6480,
      "gest": 6481,
      "ĠElizabeth": 6482,
      "Ġagreeable": 6483,
      "imag": 6484,
      "ante": 6485,
      "Ġlat": 6486,
      "Ġcard": 6487,
      "cannot": 6488,
      "Ġslightest": 6489,
      "headed": 6490,
      "Ġcompre": 6491,
      "Ġoath": 6492,
      "Ġthine": 6493,
      "Ġneat": 6494,
      "Ġswall": 6495,
      "Ġprotection": 6496,
      "Ġheavily": 6497,
      "nature": 6498,
      "ĠDuc": 6499,
      "susp": 6500,
      "Ġsore": 6501,
      "Ġfirmly": 6502,
      "Ġsne": 6503,
      "Ġsmaller": 6504,
      "Ġattempted": 6505,
      "oos": 6506,
      "ĠEnglishman": 6507,
      "Ġplun": 6508,
      "ological": 6509,
      "ĠRos": 6510,
      "Ġ26": 6511,
      "Ġreality": 6512,
      "Ġrecognized": 6513,
      "Ġbelonged": 6514,
      "otest": 6515,
      "Ġimpl": 6516,
      "udent": 6517,
      "Ġswim": 6518,
      "Ġbreeze": 6519,
      "Ġdiss": 6520,
      "Ġconviction": 6521,
      "compl": 6522,
      "Ġpace": 6523,
      "Ġincident": 6524,
      "Ġinher": 6525,
      "Ġsincere": 6526,
      "Ġdish": 6527,
      "cto": 6528,
      "Ġ29": 6529,
      "Ġerect": 6530,
      "Ġrig": 6531,
      "Ġmode": 6532,
      "Ġignorance": 6533,
      "def": 6534,
      "Ġoh": 6535,
      "icle": 6536,
      "Ġvulgar": 6537,
      "ributed": 6538,
      "Ġstates": 6539,
      "feel": 6540,
      "eman": 6541,
      "Ġcrowded": 6542,
      "Ġenormous": 6543,
      "Ġbride": 6544,
      "ĠIreland": 6545,
      "Because": 6546,
      "Ġtext": 6547,
      "ĠMat": 6548,
      "Ġbrig": 6549,
      "swe": 6550,
      "ĠMill": 6551,
      "Ġtoss": 6552,
      "Ġobvious": 6553,
      "ĠRollo": 6554,
      "Ġcounter": 6555,
      "Ġfix": 6556,
      "Ġsentence": 6557,
      "Ġliber": 6558,
      "orable": 6559,
      "sign": 6560,
      "Ġarticle": 6561,
      "ada": 6562,
      "alling": 6563,
      "Ġouter": 6564,
      "ifted": 6565,
      "Ġchose": 6566,
      "Ġwing": 6567,
      "Ġ23": 6568,
      "Ġelement": 6569,
      "withstanding": 6570,
      ",[": 6571,
      "Ġrul": 6572,
      "brother": 6573,
      "Ġyard": 6574,
      "Ġquantity": 6575,
      "mere": 6576,
      "ressing": 6577,
      "exam": 6578,
      "Ġyonder": 6579,
      "apping": 6580,
      "istent": 6581,
      "mat": 6582,
      "Ġthrowing": 6583,
      "zed": 6584,
      "want": 6585,
      "isk": 6586,
      "iot": 6587,
      "Ġfolly": 6588,
      "ĠPen": 6589,
      "chair": 6590,
      "ercy": 6591,
      "Ġvisitor": 6592,
      "porary": 6593,
      "Ġfamilies": 6594,
      "RA": 6595,
      "omb": 6596,
      "Ġ27": 6597,
      "ĠAgain": 6598,
      "port": 6599,
      "Ġsins": 6600,
      "idents": 6601,
      "Ġleaped": 6602,
      "OO": 6603,
      "asket": 6604,
      "Ġvaluable": 6605,
      "Such": 6606,
      "Ġrad": 6607,
      "general": 6608,
      "Ġcompass": 6609,
      "elly": 6610,
      "Ġdelivered": 6611,
      "Ġrepresented": 6612,
      "list": 6613,
      "Ġcareer": 6614,
      "Ġimpulse": 6615,
      "Ã¨": 6616,
      "llers": 6617,
      "closed": 6618,
      "oping": 6619,
      "Ġcountries": 6620,
      "Ġsurround": 6621,
      "Ġawake": 6622,
      "Ġmixed": 6623,
      ".âĢĻ": 6624,
      "squ": 6625,
      "Ġstayed": 6626,
      "dest": 6627,
      "ĠRoyal": 6628,
      "Ġlads": 6629,
      "Ġeleven": 6630,
      "Ġinquiry": 6631,
      "thr": 6632,
      "stra": 6633,
      "Ġ28": 6634,
      "Ġabund": 6635,
      "walk": 6636,
      "Ġlan": 6637,
      "Ġecho": 6638,
      "Ġobed": 6639,
      "othed": 6640,
      "ĠJones": 6641,
      "expl": 6642,
      "Ġawkward": 6643,
      "olen": 6644,
      "Ġlanded": 6645,
      "Ġchapter": 6646,
      "Ġastonishment": 6647,
      "within": 6648,
      "Ġstartled": 6649,
      "Ġbanks": 6650,
      "Ġlack": 6651,
      "different": 6652,
      "Ġconstantly": 6653,
      "Ġconsult": 6654,
      "umbled": 6655,
      "Ġlibr": 6656,
      "Tr": 6657,
      "inder": 6658,
      "eral": 6659,
      "Ġfulf": 6660,
      "super": 6661,
      "Ġdriving": 6662,
      "Ġimper": 6663,
      "oration": 6664,
      "ĠHoly": 6665,
      "ĠPrincess": 6666,
      "Ġdoctrine": 6667,
      "ĠSpani": 6668,
      "ĠMic": 6669,
      "Ġdeliver": 6670,
      "ols": 6671,
      "ĠChristmas": 6672,
      "usk": 6673,
      "Ġfavourite": 6674,
      "class": 6675,
      "Ġofficial": 6676,
      "Ġpurple": 6677,
      "possible": 6678,
      "England": 6679,
      "ĠColl": 6680,
      "Ġsilk": 6681,
      "Ġmilk": 6682,
      "ieties": 6683,
      "Ġseam": 6684,
      "Ġswear": 6685,
      "emy": 6686,
      "hess": 6687,
      "Ġgrin": 6688,
      "success": 6689,
      "Ġeating": 6690,
      "Ġobservation": 6691,
      "orter": 6692,
      "ĠByron": 6693,
      "Ġastonished": 6694,
      "Ġlocal": 6695,
      "eight": 6696,
      "asts": 6697,
      "ĠJer": 6698,
      "Se": 6699,
      "Ġrent": 6700,
      "Ġdragged": 6701,
      "Ġmanifest": 6702,
      "Ġpoured": 6703,
      "ĠMonsieur": 6704,
      "Ġapartment": 6705,
      "irk": 6706,
      "ĠCity": 6707,
      "Ġfinds": 6708,
      "creat": 6709,
      "Ġcontrol": 6710,
      "Ġresolution": 6711,
      "towards": 6712,
      "Ġantic": 6713,
      "oral": 6714,
      "ĠDutch": 6715,
      "UL": 6716,
      "Ġtowns": 6717,
      "Ġquarters": 6718,
      "Still": 6719,
      "pher": 6720,
      "Ġpointing": 6721,
      "tri": 6722,
      "Ġdefinite": 6723,
      "ĠSept": 6724,
      "BER": 6725,
      "Ġdisposition": 6726,
      "Ġdancing": 6727,
      "Ġselfish": 6728,
      "Ġconceal": 6729,
      "pit": 6730,
      "Ġseas": 6731,
      "ribly": 6732,
      "Ġdeserted": 6733,
      "ĠPol": 6734,
      "Ġdischar": 6735,
      "cribed": 6736,
      "word": 6737,
      "Ġsovere": 6738,
      "usions": 6739,
      "Ġflour": 6740,
      "Ġearnestly": 6741,
      "voice": 6742,
      "ĠSn": 6743,
      "Ġperplex": 6744,
      "Ġstrangers": 6745,
      "Ġcas": 6746,
      "erity": 6747,
      "Ġuniversal": 6748,
      "suffic": 6749,
      "itute": 6750,
      "Ġurged": 6751,
      "Ġapplied": 6752,
      "ĠIts": 6753,
      "IE": 6754,
      "Ġhumour": 6755,
      "Cl": 6756,
      "Ġsafely": 6757,
      "ĠRiver": 6758,
      "Ġdesir": 6759,
      "Ġ22": 6760,
      "Ġglo": 6761,
      "court": 6762,
      "Ġuncertain": 6763,
      "Ġvivid": 6764,
      "Ġaccordingly": 6765,
      "Ġgratitude": 6766,
      "friends": 6767,
      "Ġashore": 6768,
      "inated": 6769,
      "Ġscientific": 6770,
      "ĠBaron": 6771,
      "uns": 6772,
      "Ġembarrass": 6773,
      "TON": 6774,
      "omed": 6775,
      "ĠTre": 6776,
      "Ġling": 6777,
      "placed": 6778,
      "pleasure": 6779,
      "felt": 6780,
      "sometimes": 6781,
      "render": 6782,
      "Ġsteel": 6783,
      "dro": 6784,
      "lessness": 6785,
      "ingham": 6786,
      "ulating": 6787,
      "Ġsignal": 6788,
      "Ġdisturbed": 6789,
      "quiet": 6790,
      "eches": 6791,
      "Ġbush": 6792,
      "overnor": 6793,
      "Ġmechan": 6794,
      "ograp": 6795,
      "Ġknee": 6796,
      "Poor": 6797,
      "Ġintr": 6798,
      "Ġlimbs": 6799,
      "dev": 6800,
      "IX": 6801,
      "Ġtower": 6802,
      "Ġperceive": 6803,
      "town": 6804,
      "Ġsenses": 6805,
      "unting": 6806,
      "Ġnest": 6807,
      "Ġtorn": 6808,
      "Ġchim": 6809,
      "ĠSax": 6810,
      "Ġaccur": 6811,
      "bear": 6812,
      "posed": 6813,
      "ĠĠĠĠĠĠĠĠĠĠĠĠĠ": 6814,
      "Ġrighteous": 6815,
      "pract": 6816,
      "aps": 6817,
      "Ġ183": 6818,
      "smith": 6819,
      "Ġbranch": 6820,
      "pled": 6821,
      "Ġsummon": 6822,
      "Ġbenefit": 6823,
      "iences": 6824,
      "Ġod": 6825,
      "Ġsixty": 6826,
      "ĠSpain": 6827,
      "ov": 6828,
      "Ġobjection": 6829,
      "Ġsuggestion": 6830,
      "Americ": 6831,
      "Ġjump": 6832,
      "urday": 6833,
      "Ġbeard": 6834,
      "Ġnights": 6835,
      "change": 6836,
      "Ġnoon": 6837,
      "deep": 6838,
      "wife": 6839,
      "Ġeconom": 6840,
      "50": 6841,
      "given": 6842,
      "Ġnevertheless": 6843,
      "Ġmarble": 6844,
      "Ġkings": 6845,
      "Ġmagnificent": 6846,
      "itors": 6847,
      "ĠJose": 6848,
      "Ġdeeper": 6849,
      "fav": 6850,
      "Ġassumed": 6851,
      "Ġannoy": 6852,
      "Ġdise": 6853,
      "cipl": 6854,
      "ana": 6855,
      "ĠĠĠĠĠĠĠĠĠĠĠĠĠĠĠĠĠĠĠ": 6856,
      "Ġclasses": 6857,
      "urred": 6858,
      "amation": 6859,
      "occasion": 6860,
      "Ġstair": 6861,
      "Ġpir": 6862,
      "Ġsailed": 6863,
      "riedrich": 6864,
      "ĠFanny": 6865,
      "ERS": 6866,
      "ctober": 6867,
      "Ġdeclare": 6868,
      "Ġdecision": 6869,
      "Ġgrounds": 6870,
      "faced": 6871,
      "Ġcart": 6872,
      "Ġleis": 6873,
      "Ġawa": 6874,
      "Ġcommitted": 6875,
      "usive": 6876,
      "Ġanticip": 6877,
      "icken": 6878,
      "ORD": 6879,
      "ded": 6880,
      "Ġbeasts": 6881,
      "pton": 6882,
      "Ġdrag": 6883,
      "Ġfame": 6884,
      "Ġstated": 6885,
      "ĠVirgin": 6886,
      "Ġmock": 6887,
      "Ġhoriz": 6888,
      "Ġsob": 6889,
      "Ġburned": 6890,
      "houses": 6891,
      "ĠHill": 6892,
      "Ġbushes": 6893,
      "Ġexamined": 6894,
      "ĠTell": 6895,
      "manner": 6896,
      "Ġremaining": 6897,
      "occup": 6898,
      "Ġowing": 6899,
      "Ġfrequent": 6900,
      "already": 6901,
      "Ġloyal": 6902,
      "Ġshoes": 6903,
      "Ġlocked": 6904,
      "ai": 6905,
      "oper": 6906,
      "Ġcrack": 6907,
      "Ġdoth": 6908,
      "ĠAlex": 6909,
      "Ġsolitary": 6910,
      "gentleman": 6911,
      "Ġextended": 6912,
      "akened": 6913,
      "scar": 6914,
      "Ġbuck": 6915,
      "ĠFel": 6916,
      "Ġwandering": 6917,
      "asked": 6918,
      "icket": 6919,
      "iverse": 6920,
      "Ġascertain": 6921,
      "Ġflash": 6922,
      "Tom": 6923,
      "Ġplat": 6924,
      "Two": 6925,
      "Ġswiftly": 6926,
      "acco": 6927,
      "Ġmarched": 6928,
      "Ġburden": 6929,
      "Ġprint": 6930,
      "Ġmidnight": 6931,
      "kespe": 6932,
      "Before": 6933,
      "Ġreign": 6934,
      "ĠLu": 6935,
      "behind": 6936,
      "broken": 6937,
      "Ġbadly": 6938,
      "Ġgesture": 6939,
      "UT": 6940,
      "haw": 6941,
      "Ġcontinually": 6942,
      "Tell": 6943,
      "Ġuniform": 6944,
      "Ġdistrict": 6945,
      "coll": 6946,
      "zan": 6947,
      "ari": 6948,
      "Ġobserv": 6949,
      "ĠBilly": 6950,
      "ĠJuly": 6951,
      "athed": 6952,
      "Ġirrit": 6953,
      "Ġscru": 6954,
      "Ġpropri": 6955,
      "Ġcave": 6956,
      "rag": 6957,
      "Ġrout": 6958,
      "ĠWashington": 6959,
      "ĠJacob": 6960,
      "?âĢĿ": 6961,
      "Ġsmoking": 6962,
      "ĠBoston": 6963,
      "Ġexpedition": 6964,
      "Ġfourth": 6965,
      "Ġexcess": 6966,
      "ouched": 6967,
      "ĠMel": 6968,
      "Ġdrank": 6969,
      "Even": 6970,
      "shire": 6971,
      "Ġrelieved": 6972,
      "Ġmagic": 6973,
      "ĠRo": 6974,
      "resses": 6975,
      "Ġlightly": 6976,
      "Ġportra": 6977,
      "mount": 6978,
      "otions": 6979,
      "thousand": 6980,
      "Ġtort": 6981,
      "andal": 6982,
      "Ġperil": 6983,
      "Ġwanting": 6984,
      "Ġcompared": 6985,
      "Ġreflection": 6986,
      "Ġinfl": 6987,
      "Ġtouching": 6988,
      "Ġinner": 6989,
      "Ġfury": 6990,
      "ĠCorn": 6991,
      "abor": 6992,
      "Ġsaddle": 6993,
      "kespeare": 6994,
      "Ġroll": 6995,
      "sal": 6996,
      "really": 6997,
      "Ġge": 6998,
      "ayed": 6999,
      "along": 7000,
      "Ġcompelled": 7001,
      "ĠĠĠĠĠĠĠĠĠĠĠĠĠĠĠĠĠ": 7002,
      "Ġdebt": 7003,
      "Ġcleared": 7004,
      "began": 7005,
      "Ġric": 7006,
      "Ġstrain": 7007,
      "Ġsilly": 7008,
      "Ġsport": 7009,
      "Ġate": 7010,
      "comfortable": 7011,
      "uine": 7012,
      "Ġ11": 7013,
      "uv": 7014,
      "wart": 7015,
      "ĠCath": 7016,
      "beautiful": 7017,
      "Ġbeings": 7018,
      "Ġconfident": 7019,
      "Ġprejud": 7020,
      "Ġwrath": 7021,
      "Ġcell": 7022,
      "En": 7023,
      "Ġentering": 7024,
      "least": 7025,
      "Pres": 7026,
      "Ġfolk": 7027,
      "Ġexquisite": 7028,
      "willing": 7029,
      "comple": 7030,
      "Ġowe": 7031,
      "Ġscenes": 7032,
      "Ġtemple": 7033,
      "Ġancest": 7034,
      "encies": 7035,
      "Ġjoke": 7036,
      "wit": 7037,
      "cription": 7038,
      "Ġarticles": 7039,
      "--_": 7040,
      "Ġcompet": 7041,
      "ummer": 7042,
      "Ġinches": 7043,
      "inqu": 7044,
      "actory": 7045,
      "ĠSea": 7046,
      "Ġangel": 7047,
      "blood": 7048,
      "arrison": 7049,
      "Ġarrangement": 7050,
      "Ġatmosphere": 7051,
      "Ġreadily": 7052,
      "Ġservices": 7053,
      "death": 7054,
      "trees": 7055,
      "feeling": 7056,
      "tar": 7057,
      "Ġremote": 7058,
      "General": 7059,
      "Ġinvited": 7060,
      "Ġcheap": 7061,
      "mons": 7062,
      "Ġvessels": 7063,
      "Ġdining": 7064,
      "ifts": 7065,
      "Ġslip": 7066,
      "Par": 7067,
      "ige": 7068,
      "ĠTH": 7069,
      "Ġmischief": 7070,
      "Ġsavages": 7071,
      "mine": 7072,
      "ĠPoor": 7073,
      "Ġabsor": 7074,
      "Ġsending": 7075,
      "Ġpursuit": 7076,
      "ĠCons": 7077,
      "ĠAdam": 7078,
      "Ġcandle": 7079,
      "Ġdearest": 7080,
      "Ġswung": 7081,
      "Ġstraw": 7082,
      "ifully": 7083,
      "Ġthence": 7084,
      "Ġdeparted": 7085,
      "hension": 7086,
      "Ġabsent": 7087,
      "Ġfil": 7088,
      "wonder": 7089,
      "udence": 7090,
      "ĠYe": 7091,
      "Ġteacher": 7092,
      "Ġpurposes": 7093,
      "Ġchain": 7094,
      "oped": 7095,
      "Ġpaint": 7096,
      "spirit": 7097,
      "ĠStan": 7098,
      "Ġacts": 7099,
      "Ġdestruction": 7100,
      "RI": 7101,
      "burgh": 7102,
      "ESS": 7103,
      "sure": 7104,
      "asper": 7105,
      "Ġharsh": 7106,
      "Ġsuspected": 7107,
      "Ġsang": 7108,
      "vest": 7109,
      "atching": 7110,
      "Ġdistinctly": 7111,
      "rily": 7112,
      "ĠAlice": 7113,
      "Ġdu": 7114,
      "Ġingen": 7115,
      "few": 7116,
      "gging": 7117,
      "Ġverse": 7118,
      "Ġdil": 7119,
      "hope": 7120,
      "Ġlift": 7121,
      "Ġach": 7122,
      "Ġaudience": 7123,
      "Ġscore": 7124,
      "Ġphilosophy": 7125,
      "Ġmissed": 7126,
      "AB": 7127,
      "ĠIV": 7128,
      "ofty": 7129,
      "Sp": 7130,
      "Ġreject": 7131,
      "Ġspeaks": 7132,
      "ĠJimmy": 7133,
      "ita": 7134,
      "ĠJean": 7135,
      "Ġrespectable": 7136,
      "UN": 7137,
      "Ġrelated": 7138,
      "Ġintellectual": 7139,
      "Ġfailure": 7140,
      "Ġwake": 7141,
      "Ġruns": 7142,
      "agreeable": 7143,
      "ITH": 7144,
      "ĠUnder": 7145,
      "itself": 7146,
      "Ġconfused": 7147,
      "Ġpolitics": 7148,
      "spring": 7149,
      "ĠMed": 7150,
      "Ġtele": 7151,
      "bott": 7152,
      "Ġdeed": 7153,
      "Ġeloqu": 7154,
      "ĠEach": 7155,
      "imony": 7156,
      "Ġsubstance": 7157,
      "Ġseparated": 7158,
      "Ġdaughters": 7159,
      "Ġrolling": 7160,
      "ĠBoth": 7161,
      "Ġbewild": 7162,
      "Ġunlike": 7163,
      "Ġindifferent": 7164,
      "eyed": 7165,
      "Ġowner": 7166,
      "Ġcraw": 7167,
      "lest": 7168,
      "ording": 7169,
      "school": 7170,
      "alog": 7171,
      "Ġshed": 7172,
      "Ġ184": 7173,
      "Ġdismiss": 7174,
      "hab": 7175,
      "Ġalter": 7176,
      "Ġdrinking": 7177,
      "daughter": 7178,
      "ĠDar": 7179,
      "istocr": 7180,
      "Ġelsewhere": 7181,
      "Ġvex": 7182,
      "ĠSon": 7183,
      "umption": 7184,
      "Ġtones": 7185,
      "Ġcharged": 7186,
      "Ġdelic": 7187,
      "Ġdirty": 7188,
      "iated": 7189,
      "Ġwi": 7190,
      "Ġpunishment": 7191,
      "nut": 7192,
      "olate": 7193,
      "inion": 7194,
      "chance": 7195,
      "chas": 7196,
      "Ġfalls": 7197,
      "Ġprecip": 7198,
      "Ġdisappointed": 7199,
      "antages": 7200,
      "Ġped": 7201,
      "Ġabstr": 7202,
      "asy": 7203,
      "ĠNed": 7204,
      "ĠProv": 7205,
      "Only": 7206,
      "Ġpolicy": 7207,
      "Ġsen": 7208,
      "Ġfires": 7209,
      "Ġjest": 7210,
      "Ġdisturb": 7211,
      "Ġarchit": 7212,
      "Ġmaiden": 7213,
      "ĠGermany": 7214,
      "run": 7215,
      "ĠMo": 7216,
      "Ġcommer": 7217,
      "Was": 7218,
      "Ġslope": 7219,
      "conven": 7220,
      "Ġlesson": 7221,
      "Ġpopulation": 7222,
      "ĠTake": 7223,
      "ĠHarold": 7224,
      "ĠAndrew": 7225,
      "Ġyer": 7226,
      "Ġtribe": 7227,
      "Ġvic": 7228,
      "CE": 7229,
      "ositions": 7230,
      "Ġbegins": 7231,
      "ĠOther": 7232,
      "grim": 7233,
      "Ġclam": 7234,
      "Ġessential": 7235,
      "Ġphenomen": 7236,
      "umps": 7237,
      "IST": 7238,
      "Ġcolours": 7239,
      "Ġheartily": 7240,
      "Ġtrusted": 7241,
      "Ġphrase": 7242,
      "Ġga": 7243,
      "Ġhumanity": 7244,
      "Ġabruptly": 7245,
      "Ġfarmer": 7246,
      "justice": 7247,
      "ĠMur": 7248,
      "Ġwinds": 7249,
      "object": 7250,
      "Ġbark": 7251,
      "Ġfain": 7252,
      "Ġnoted": 7253,
      ",)": 7254,
      "women": 7255,
      "Ġsounded": 7256,
      "Ġexposed": 7257,
      "Ġspecim": 7258,
      "Ġsignific": 7259,
      "othe": 7260,
      "bor": 7261,
      "ĠRoger": 7262,
      "ictor": 7263,
      "Ġsalt": 7264,
      "Ġconstitution": 7265,
      "Certainly": 7266,
      "Ġcoward": 7267,
      "draw": 7268,
      "Ġwha": 7269,
      "Ġcomment": 7270,
      "Ġaven": 7271,
      "ĠChan": 7272,
      "Ġdisgu": 7273,
      "rive": 7274,
      "ĠFlorence": 7275,
      "imm": 7276,
      "ĠGree": 7277,
      "Ġshortly": 7278,
      "bacco": 7279,
      "Ġgrav": 7280,
      "Ġnois": 7281,
      "Ġcollected": 7282,
      "ĠOx": 7283,
      "Ġrecent": 7284,
      "Ġdisgrace": 7285,
      "Ġromantic": 7286,
      "Ġglow": 7287,
      "ctions": 7288,
      "ulpt": 7289,
      "Ġexceedingly": 7290,
      "short": 7291,
      "Ġmarks": 7292,
      "Ġdevelopment": 7293,
      "iner": 7294,
      "ĠGold": 7295,
      "ĠApp": 7296,
      "verted": 7297,
      "Ġconsidering": 7298,
      "ADY": 7299,
      "lock": 7300,
      "Ġprofit": 7301,
      "Ġreflected": 7302,
      "Ġcavalry": 7303,
      "Ġgoodness": 7304,
      "scape": 7305,
      "Ġdre": 7306,
      "Ġjack": 7307,
      "ĠFore": 7308,
      "Ġtoil": 7309,
      "ĠMir": 7310,
      "need": 7311,
      "Ġ180": 7312,
      "istence": 7313,
      "Ġlibrary": 7314,
      "ĠJon": 7315,
      "Ġ187": 7316,
      "Ġgovernor": 7317,
      "direct": 7318,
      "Ġgloomy": 7319,
      "Ġrules": 7320,
      "Ġinch": 7321,
      "ĠUpon": 7322,
      "alone": 7323,
      "opes": 7324,
      "ica": 7325,
      "Ġveget": 7326,
      "Ġbutter": 7327,
      "blance": 7328,
      "Ġexperiment": 7329,
      "mus": 7330,
      "Ġventured": 7331,
      "cely": 7332,
      "olt": 7333,
      "Ġsober": 7334,
      "ĠCap": 7335,
      "Ġedition": 7336,
      "Ġdiscussion": 7337,
      "ĠCHA": 7338,
      "ĠĠĠĠĠĠĠĠĠĠĠĠĠĠ": 7339,
      "Ġlun": 7340,
      "iolet": 7341,
      "remember": 7342,
      "uously": 7343,
      "Ġendure": 7344,
      "Ġunconscious": 7345,
      "Ġstructure": 7346,
      "Ġentreat": 7347,
      "Ġlively": 7348,
      "Ġsmell": 7349,
      "Ġexpense": 7350,
      "Ġgeneration": 7351,
      "Ġschol": 7352,
      "Ġsust": 7353,
      "Ġfurnished": 7354,
      "inations": 7355,
      "Ġwives": 7356,
      "prov": 7357,
      "Ġbatt": 7358,
      "Ġgranted": 7359,
      "Ġreputation": 7360,
      "Ġmodest": 7361,
      "wing": 7362,
      "Ġsmart": 7363,
      "Ġpolite": 7364,
      "ico": 7365,
      "Ġsailors": 7366,
      "Ġenthusiasm": 7367,
      "phew": 7368,
      "incl": 7369,
      "ĠSometimes": 7370,
      "Ġliqu": 7371,
      "Ġpoems": 7372,
      "Ġreduced": 7373,
      "Ġshy": 7374,
      "fight": 7375,
      "Ġprinted": 7376,
      "Take": 7377,
      "Ġnonsense": 7378,
      "ufact": 7379,
      "Ġpup": 7380,
      "Ġinev": 7381,
      "Ġreasonable": 7382,
      "Ġrecollect": 7383,
      "Ġaccompany": 7384,
      "ĠTar": 7385,
      "Ġcam": 7386,
      "Ġmingled": 7387,
      "mad": 7388,
      "Ġsteamer": 7389,
      "sett": 7390,
      "Ġpretend": 7391,
      "Ġcomrades": 7392,
      "Ġflow": 7393,
      "Ġseed": 7394,
      "Dear": 7395,
      "Ġgang": 7396,
      "Ġprocl": 7397,
      "rified": 7398,
      "liver": 7399,
      "Ġcommission": 7400,
      "strange": 7401,
      "Ġamused": 7402,
      "Ġprotest": 7403,
      "rison": 7404,
      "rat": 7405,
      "Ġfetch": 7406,
      "Ġrev": 7407,
      "Ġmadam": 7408,
      "Ġnephew": 7409,
      "ĠEve": 7410,
      "anda": 7411,
      "gave": 7412,
      "ĠThree": 7413,
      "Ġinsp": 7414,
      "anting": 7415,
      "Ġprayers": 7416,
      "attering": 7417,
      "Ġlaying": 7418,
      "Ġjumped": 7419,
      "Ġpuzzled": 7420,
      "ĠHast": 7421,
      "Ġborrow": 7422,
      "arson": 7423,
      "Ġarrive": 7424,
      "Ġacquired": 7425,
      "ĠMa": 7426,
      "UM": 7427,
      "Ġbeaten": 7428,
      "Ġcher": 7429,
      "Ġdecide": 7430,
      "Ġpossibility": 7431,
      "ouncil": 7432,
      "Ġsunk": 7433,
      "Ġchin": 7434,
      "Which": 7435,
      "Ġhed": 7436,
      "ulties": 7437,
      "Ġexhausted": 7438,
      "Ġlikes": 7439,
      "Ġbrid": 7440,
      "Ġcities": 7441,
      "ĠDeath": 7442,
      "itate": 7443,
      "Ġagony": 7444,
      "Ġfeast": 7445,
      "ua": 7446,
      "wall": 7447,
      "ĠCamp": 7448,
      "Ġsovereign": 7449,
      "Ġmeantime": 7450,
      "ovember": 7451,
      "Ġregion": 7452,
      "ena": 7453,
      "gels": 7454,
      "\";": 7455,
      "ĠEuropean": 7456,
      "Ġthread": 7457,
      "ĠRem": 7458,
      "Ġrefuge": 7459,
      "ounter": 7460,
      "uming": 7461,
      "Ġstarting": 7462,
      "Ġconsequences": 7463,
      "King": 7464,
      "Somet": 7465,
      "Ġgallant": 7466,
      "Ġfinish": 7467,
      "Ġindignation": 7468,
      "ĠĠĠĠĠĠĠĠĠĠĠĠĠĠĠĠĠĠĠĠĠĠ": 7469,
      "Ġacting": 7470,
      "Ġdesk": 7471,
      "ĠBible": 7472,
      "Ġgover": 7473,
      "Ġwandered": 7474,
      "Ġprevented": 7475,
      "ĠAngel": 7476,
      "fere": 7477,
      "Ġnon": 7478,
      "igation": 7479,
      "ĠBay": 7480,
      "Ġtravelling": 7481,
      "second": 7482,
      "New": 7483,
      "often": 7484,
      "fol": 7485,
      "Ġkeeps": 7486,
      "Ġstuck": 7487,
      "Again": 7488,
      "VER": 7489,
      "Ġnamely": 7490,
      "itan": 7491,
      "cham": 7492,
      "icable": 7493,
      "Ġpropose": 7494,
      "Ġamusement": 7495,
      "ĠHaw": 7496,
      "Ġrival": 7497,
      "Ġclock": 7498,
      "Ġthither": 7499,
      "ighted": 7500,
      "ĠPeople": 7501,
      "Ġgrowth": 7502,
      "bable": 7503,
      "Ġneighbor": 7504,
      "ĠAN": 7505,
      "esses": 7506,
      "iday": 7507,
      "Ġbrings": 7508,
      "whe": 7509,
      "Ġdirections": 7510,
      "Ġcommenced": 7511,
      "bb": 7512,
      "sun": 7513,
      "erate": 7514,
      "isl": 7515,
      "fles": 7516,
      "Ġfasc": 7517,
      "ioned": 7518,
      "ATION": 7519,
      "Ġrud": 7520,
      "ola": 7521,
      "prof": 7522,
      "ĠĠĠĠĠĠĠĠĠĠĠĠĠĠĠĠĠĠĠĠĠĠĠ": 7523,
      "Ġ185": 7524,
      "Ġautumn": 7525,
      "Phil": 7526,
      "ĠPri": 7527,
      "ĠJud": 7528,
      "ĠVal": 7529,
      "resist": 7530,
      "Ġtriump": 7531,
      "Ġdeer": 7532,
      "ĠTherefore": 7533,
      "Ġsilently": 7534,
      "Ġruined": 7535,
      "mediately": 7536,
      "especially": 7537,
      "Ġinform": 7538,
      "Ġheels": 7539,
      "Ġafterward": 7540,
      "ĠIsland": 7541,
      "times": 7542,
      "Ġbarbar": 7543,
      "Ġrisen": 7544,
      "Ġcunning": 7545,
      "Ġrespects": 7546,
      "Ġlou": 7547,
      "onnet": 7548,
      "gend": 7549,
      "Ġfurniture": 7550,
      "above": 7551,
      "ĠKen": 7552,
      "hair": 7553,
      "Ġinsult": 7554,
      "Ġdoubtful": 7555,
      "Ġerror": 7556,
      "gedy": 7557,
      "Ġcontrast": 7558,
      "Ġnewspaper": 7559,
      "Ġcloser": 7560,
      "VII": 7561,
      "Ġcurse": 7562,
      "oles": 7563,
      "Ġdescribe": 7564,
      "Ġreminded": 7565,
      "ĠĠĠĠĠĠĠĠĠĠĠĠĠĠĠĠĠĠĠĠ": 7566,
      "Ġtremendous": 7567,
      "ittee": 7568,
      "Ġunw": 7569,
      "thy": 7570,
      "continued": 7571,
      "Ad": 7572,
      "Ġopposition": 7573,
      "eries": 7574,
      "lla": 7575,
      "Ġforever": 7576,
      "ĠVol": 7577,
      "Ġwarn": 7578,
      "Ġgiant": 7579,
      "grand": 7580,
      "Ġaltered": 7581,
      "ĠAnother": 7582,
      "Ġlofty": 7583,
      "Ġcanv": 7584,
      "Ġsheet": 7585,
      "Ġsuperst": 7586,
      "Ġ179": 7587,
      "Ġaccomplished": 7588,
      "Ġult": 7589,
      "appearance": 7590,
      "ĠAfrica": 7591,
      "Would": 7592,
      "aign": 7593,
      "azz": 7594,
      "Ġfeeble": 7595,
      "Ġfitted": 7596,
      "Ġengagement": 7597,
      "Ġrailway": 7598,
      "ĠHugh": 7599,
      "Ġconfl": 7600,
      "Ġreaders": 7601,
      "Ġfearful": 7602,
      "izz": 7603,
      "Ġscale": 7604,
      "ilight": 7605,
      "bal": 7606,
      "Ġwedding": 7607,
      "west": 7608,
      "Ġraising": 7609,
      "Ġbust": 7610,
      "ashes": 7611,
      "Ġfeels": 7612,
      "Ġmoonlight": 7613,
      "Ġhappens": 7614,
      "anded": 7615,
      "Ġplot": 7616,
      "party": 7617,
      "Ġheed": 7618,
      "icles": 7619,
      "Ġniece": 7620,
      "Ġstrangely": 7621,
      "ĠApril": 7622,
      "Ġstudied": 7623,
      "Ġdimin": 7624,
      "Ġpains": 7625,
      "Ġintimate": 7626,
      "Ġteaching": 7627,
      "Ġpatron": 7628,
      "Ġcloak": 7629,
      "convers": 7630,
      "Ġexecution": 7631,
      "Ġpoets": 7632,
      "Ġrepeat": 7633,
      "Ġadopted": 7634,
      "Ġaltern": 7635,
      "Ġtiny": 7636,
      "Ġgig": 7637,
      "ĠOff": 7638,
      "Ġtid": 7639,
      "Ġfert": 7640,
      "rage": 7641,
      "letter": 7642,
      "shad": 7643,
      "ushes": 7644,
      "Ġpermit": 7645,
      "shot": 7646,
      "ĠTemple": 7647,
      "meet": 7648,
      "Ġblew": 7649,
      "idel": 7650,
      "Ġdepth": 7651,
      "Ġromance": 7652,
      "Ġactions": 7653,
      "ived": 7654,
      "icking": 7655,
      "irmed": 7656,
      "Ġtrip": 7657,
      "minded": 7658,
      "ĠSk": 7659,
      "Ġconcealed": 7660,
      "ĠLand": 7661,
      "OP": 7662,
      "inch": 7663,
      "ester": 7664,
      "Ġpasses": 7665,
      "anche": 7666,
      "Ġdram": 7667,
      "eanwhile": 7668,
      "eck": 7669,
      "Ġ:": 7670,
      "certainly": 7671,
      "DER": 7672,
      "avery": 7673,
      "Ġdistinction": 7674,
      "Ġpenet": 7675,
      "erted": 7676,
      "Ġobeyed": 7677,
      "circumstances": 7678,
      "Ġperformed": 7679,
      "ierre": 7680,
      "Ġoutward": 7681,
      "Ġgoin": 7682,
      "Ġupstairs": 7683,
      "Ġholds": 7684,
      "Ġparish": 7685,
      "itively": 7686,
      "Ġattacked": 7687,
      "AIN": 7688,
      "Ġsway": 7689,
      "dog": 7690,
      "feet": 7691,
      "Ġrealized": 7692,
      "ĠCro": 7693,
      "iana": 7694,
      "Ġprize": 7695,
      "build": 7696,
      "Ġpositive": 7697,
      "aments": 7698,
      "Ġshield": 7699,
      "itty": 7700,
      "Ġsweep": 7701,
      "family": 7702,
      "prot": 7703,
      "guard": 7704,
      "Ġsource": 7705,
      "Ġdashed": 7706,
      "Ġmerit": 7707,
      "Ġdang": 7708,
      "Ġsunset": 7709,
      "earth": 7710,
      "reath": 7711,
      "Ġperman": 7712,
      "Ġmillion": 7713,
      "24": 7714,
      "author": 7715,
      "year": 7716,
      "erton": 7717,
      "Ġincred": 7718,
      "grow": 7719,
      "ĠSol": 7720,
      "ĠOut": 7721,
      "Ġmajority": 7722,
      "conce": 7723,
      "boys": 7724,
      "sense": 7725,
      "Ġcutting": 7726,
      "Ġmart": 7727,
      "rian": 7728,
      "sell": 7729,
      "ĠBoy": 7730,
      "French": 7731,
      "ĠEthel": 7732,
      "Ġstirred": 7733,
      "ĠYOU": 7734,
      "Ġattent": 7735,
      "Ġintend": 7736,
      "ĠPresident": 7737,
      "Ġtrifle": 7738,
      "Ġmerchant": 7739,
      "Ġfortunate": 7740,
      "Ġ\"_": 7741,
      "Ġbelonging": 7742,
      "Ġmasters": 7743,
      "arly": 7744,
      "oup": 7745,
      "Ġbloom": 7746,
      "Ġroads": 7747,
      "Ġdisappointment": 7748,
      "irts": 7749,
      "ĠDay": 7750,
      "ĠRover": 7751,
      "Ġfed": 7752,
      "aying": 7753,
      "Ġdeveloped": 7754,
      "Ġneighbourhood": 7755,
      "London": 7756,
      "ĠKate": 7757,
      "Ġconceive": 7758,
      "Ġinsect": 7759,
      "Ġmachine": 7760,
      "ements": 7761,
      "Ġissue": 7762,
      "Ġpile": 7763,
      "Ġast": 7764,
      "eenth": 7765,
      "bound": 7766,
      "borough": 7767,
      "Ġpool": 7768,
      "itality": 7769,
      "ĠLatin": 7770,
      "Ġdaylight": 7771,
      "ĠLight": 7772,
      "iege": 7773,
      ".'\"": 7774,
      "Ġornament": 7775,
      "div": 7776,
      "Ġpink": 7777,
      "Thou": 7778,
      "Ġcouncil": 7779,
      "Ġgracious": 7780,
      "hot": 7781,
      "ooner": 7782,
      "dered": 7783,
      "Ġpine": 7784,
      "Ġcrossing": 7785,
      "ĠSar": 7786,
      "Ġexisted": 7787,
      "whel": 7788,
      "Ġflashed": 7789,
      "several": 7790,
      "Ġfarewell": 7791,
      "Ġmonarch": 7792,
      "elf": 7793,
      "begin": 7794,
      "Ġcalmly": 7795,
      "achment": 7796,
      "ĠSen": 7797,
      "Ġfet": 7798,
      "Ġfund": 7799,
      "quet": 7800,
      "Ġgathering": 7801,
      "isp": 7802,
      "Ġprovisions": 7803,
      "viously": 7804,
      "Ġwherever": 7805,
      "impse": 7806,
      "Ġchimney": 7807,
      "olved": 7808,
      "Ġcharacteristic": 7809,
      "ĠClara": 7810,
      "Ġvictim": 7811,
      "Ġmotive": 7812,
      "contr": 7813,
      "Ġgenuine": 7814,
      "allel": 7815,
      "ĠMost": 7816,
      "hin": 7817,
      "ĠCont": 7818,
      "ĠĠĠĠĠĠĠĠĠĠĠĠĠĠĠĠĠĠ": 7819,
      "vo": 7820,
      "tes": 7821,
      "Ġbeating": 7822,
      "pict": 7823,
      "leave": 7824,
      "ĠMort": 7825,
      "adise": 7826,
      "umble": 7827,
      "Ġaccounts": 7828,
      "inous": 7829,
      "Ġintervals": 7830,
      "Sid": 7831,
      "din": 7832,
      "ĠTurn": 7833,
      "Ġcreated": 7834,
      "org": 7835,
      "evening": 7836,
      "Ġlanding": 7837,
      "oard": 7838,
      "ugged": 7839,
      "Ġambition": 7840,
      "Ġprecisely": 7841,
      "Ġresting": 7842,
      "essie": 7843,
      "fts": 7844,
      "Chapter": 7845,
      "Ġlust": 7846,
      "Ġrab": 7847,
      "ĠAmy": 7848,
      "ĠJoseph": 7849,
      "ĠShall": 7850,
      "ustace": 7851,
      "Ġabandoned": 7852,
      "ys": 7853,
      "itudes": 7854,
      "Ġmasses": 7855,
      "Ġstor": 7856,
      "Ġanchor": 7857,
      "Ġsadly": 7858,
      "olutely": 7859,
      "Ġfan": 7860,
      "ravag": 7861,
      "ĠTim": 7862,
      "gram": 7863,
      "Ġbund": 7864,
      "Ġenabled": 7865,
      "Ġeleg": 7866,
      "followed": 7867,
      "Any": 7868,
      "ĠNorman": 7869,
      "ĠCur": 7870,
      "VIII": 7871,
      "wen": 7872,
      "Ġadmin": 7873,
      "ĠSu": 7874,
      "ĠSav": 7875,
      "uity": 7876,
      "Ġeaten": 7877,
      "rim": 7878,
      "Ġhandkerchief": 7879,
      "ivering": 7880,
      "roll": 7881,
      "Â§": 7882,
      "chase": 7883,
      "Ġmessenger": 7884,
      "ĠGlad": 7885,
      "although": 7886,
      "gered": 7887,
      "dead": 7888,
      "Ġadmirable": 7889,
      "Ġselection": 7890,
      "enses": 7891,
      "Ġeh": 7892,
      "Ġfaded": 7893,
      "Ġimmort": 7894,
      "Ġagent": 7895,
      "else": 7896,
      "Ġslain": 7897,
      "Ġseeking": 7898,
      "Ġresent": 7899,
      "Ġbedroom": 7900,
      "Ġinferior": 7901,
      "represent": 7902,
      "Ġelectric": 7903,
      "ĠTommy": 7904,
      "MY": 7905,
      "Ġusing": 7906,
      "Ġtendency": 7907,
      "Ġrejoined": 7908,
      "Ġfeed": 7909,
      "Ġdoorway": 7910,
      "Ġgraceful": 7911,
      "call": 7912,
      "Ġclergyman": 7913,
      "Ġgrie": 7914,
      "umbling": 7915,
      "thus": 7916,
      "ĠCong": 7917,
      "Ġconception": 7918,
      "Ġlordship": 7919,
      "Ġhiding": 7920,
      "idity": 7921,
      "coloured": 7922,
      "TO": 7923,
      "iency": 7924,
      "George": 7925,
      "Ġaverage": 7926,
      "ĠCa": 7927,
      "Ġfortnight": 7928,
      "Ġpreserved": 7929,
      "giving": 7930,
      "ĠĠĠĠĠĠĠĠĠĠĠĠ": 7931,
      "Ġsimplicity": 7932,
      "Ġvel": 7933,
      "Ġrav": 7934,
      "ĠScotch": 7935,
      "sty": 7936,
      "ĠSince": 7937,
      "geance": 7938,
      "Ġhundreds": 7939,
      "Ġxx": 7940,
      "ggy": 7941,
      "green": 7942,
      "TS": 7943,
      "Ġ188": 7944,
      "neighb": 7945,
      "Ġgroups": 7946,
      "Ġconfessed": 7947,
      "ĠSaturday": 7948,
      "Ġsensation": 7949,
      "Ġblessing": 7950,
      "Ġard": 7951,
      "Ġavo": 7952,
      "bene": 7953,
      "Ġfoul": 7954,
      "Ġraces": 7955,
      "Ġfairy": 7956,
      "luck": 7957,
      "Ġwrought": 7958,
      "ĠLaura": 7959,
      "inson": 7960,
      "Ġexamine": 7961,
      "ĠEmperor": 7962,
      "ender": 7963,
      "ĠAlf": 7964,
      "Ġstole": 7965,
      "Ġeggs": 7966,
      "onday": 7967,
      "suppose": 7968,
      "ĠBook": 7969,
      "Ġthreatened": 7970,
      "Ġwilderness": 7971,
      "greg": 7972,
      "Ġdevotion": 7973,
      "answered": 7974,
      "true": 7975,
      "Ġceremony": 7976,
      "covered": 7977,
      "ĠOctober": 7978,
      "Ġadventures": 7979,
      "ĠFriedrich": 7980,
      "truth": 7981,
      "ĠAcc": 7982,
      "taking": 7983,
      "Ġdarling": 7984,
      "Ġmoreover": 7985,
      "cial": 7986,
      "Ġflushed": 7987,
      "Ġveil": 7988,
      "Ġpluck": 7989,
      "Ġextrem": 7990,
      "Ġnorthern": 7991,
      "Ġspell": 7992,
      "ĠGil": 7993,
      "ĠDou": 7994,
      "Ġcenturies": 7995,
      "Ġdeadly": 7996,
      "Ġgrandfather": 7997,
      "Ġcuriously": 7998,
      "Ġexperienced": 7999,
      "Ġcigar": 8000,
      "itious": 8001,
      "Ġinquire": 8002,
      "Ġridiculous": 8003,
      "Ġdetail": 8004,
      "Ġclimb": 8005,
      "suddenly": 8006,
      "ineas": 8007,
      "ĠMAR": 8008,
      "writing": 8009,
      "Ġoil": 8010,
      "First": 8011,
      "Ġbears": 8012,
      "Ġdocum": 8013,
      "Ġtobacco": 8014,
      "ensity": 8015,
      "ino": 8016,
      "ĠTime": 8017,
      "consequ": 8018,
      "Ġsupported": 8019,
      "ĠRachel": 8020,
      "cember": 8021,
      "Ġarrangements": 8022,
      "Ġthrill": 8023,
      "Ġbitterly": 8024,
      "berg": 8025,
      "natured": 8026,
      "Ġdivision": 8027,
      "fair": 8028,
      "jac": 8029,
      "Ġclimbed": 8030,
      "Ġcollege": 8031,
      "Ġtenderness": 8032,
      "Ġparting": 8033,
      "23": 8034,
      "Ġcolonel": 8035,
      "Ġroused": 8036,
      "Ġwrites": 8037,
      "enny": 8038,
      "Ġwhirl": 8039,
      "regard": 8040,
      "Ġchances": 8041,
      "ĠAmong": 8042,
      "Ġreluct": 8043,
      "itled": 8044,
      "Ġcease": 8045,
      "Ġreproach": 8046,
      "spo": 8047,
      "Ġaffectionate": 8048,
      "ĠPresently": 8049,
      "Ġconfined": 8050,
      "spic": 8051,
      "bery": 8052,
      "deal": 8053,
      "ato": 8054,
      "next": 8055,
      "Ġnecessarily": 8056,
      "Ġinduced": 8057,
      "Ġmurmur": 8058,
      "rington": 8059,
      "Ġcoal": 8060,
      "Ġexamination": 8061,
      "emb": 8062,
      "leton": 8063,
      "inth": 8064,
      "Ġpover": 8065,
      "Ġcompliment": 8066,
      "Ġstag": 8067,
      "Ġmultitude": 8068,
      "Ġcorrupt": 8069,
      "Ġdetect": 8070,
      "thinking": 8071,
      "Ġpistol": 8072,
      "trave": 8073,
      "quick": 8074,
      "acted": 8075,
      "Ġcapacity": 8076,
      "Ġsed": 8077,
      "Ġox": 8078,
      "owl": 8079,
      "Ġpoverty": 8080,
      "ospel": 8081,
      "hill": 8082,
      "vell": 8083,
      "Ġpassions": 8084,
      "Ġbeds": 8085,
      "ĠCarol": 8086,
      "Ġglit": 8087,
      "husband": 8088,
      "welt": 8089,
      "LY": 8090,
      "ĠPolly": 8091,
      "Ġpaying": 8092,
      "Ġcommunication": 8093,
      "Ġnerves": 8094,
      "Ġmeanwhile": 8095,
      "sold": 8096,
      "ĠSociety": 8097,
      "Ġunited": 8098,
      "Ġlandlord": 8099,
      "Ġeighteen": 8100,
      "ĠOxford": 8101,
      "Had": 8102,
      "ĠWy": 8103,
      "Ġbeloved": 8104,
      "Ġlaz": 8105,
      "bot": 8106,
      "Ġrhy": 8107,
      "ĠAng": 8108,
      "Ġshirt": 8109,
      "Ġpassages": 8110,
      "Ġaffl": 8111,
      "Ġsits": 8112,
      "icing": 8113,
      "Ġ\"'": 8114,
      "However": 8115,
      "asures": 8116,
      "ĠLow": 8117,
      "aith": 8118,
      "Ġeste": 8119,
      "Ġgrant": 8120,
      "Ġbatter": 8121,
      "owning": 8122,
      "Ġcho": 8123,
      "Ġdisgust": 8124,
      "Ġrevolution": 8125,
      "oiselle": 8126,
      "ĠThy": 8127,
      ",_": 8128,
      "ĠDem": 8129,
      "rels": 8130,
      "vill": 8131,
      "Ġcounty": 8132,
      "Ġelements": 8133,
      "Ġretire": 8134,
      "knowledge": 8135,
      "Ġsuccession": 8136,
      "uty": 8137,
      "Ġburnt": 8138,
      "Ġinstrument": 8139,
      "ĠSeptember": 8140,
      "Car": 8141,
      "Ġenable": 8142,
      "Ġavail": 8143,
      "Ġweapons": 8144,
      "Ġplays": 8145,
      "sac": 8146,
      "Ġsink": 8147,
      "ĠEmily": 8148,
      "atherine": 8149,
      "Ġpriests": 8150,
      "uppose": 8151,
      "IGH": 8152,
      "Ġlunch": 8153,
      "ĠBritain": 8154,
      "27": 8155,
      "Ġunpleasant": 8156,
      "gold": 8157,
      "vet": 8158,
      "ĠSher": 8159,
      "Ġmusk": 8160,
      "across": 8161,
      "Ġbishop": 8162,
      "Ġproblem": 8163,
      "uscript": 8164,
      "ĠWild": 8165,
      "EST": 8166,
      "orig": 8167,
      "Ġbetrayed": 8168,
      "Fl": 8169,
      "Ġthirst": 8170,
      "Ġchamp": 8171,
      "Old": 8172,
      "Ġoffence": 8173,
      "inf": 8174,
      "miral": 8175,
      "Ġindependent": 8176,
      "Ġpartner": 8177,
      "iah": 8178,
      "alem": 8179,
      "intellig": 8180,
      "cipline": 8181,
      "Ġcontents": 8182,
      "Ġrepent": 8183,
      "Ġeasier": 8184,
      "Another": 8185,
      "Ġtomb": 8186,
      "ĠCould": 8187,
      "athetic": 8188,
      "Ġnay": 8189,
      "inburgh": 8190,
      "Ġded": 8191,
      "IF": 8192,
      "Ġlend": 8193,
      "nold": 8194,
      "olas": 8195,
      "Ġletting": 8196,
      "Ġovercome": 8197,
      "Ġdepends": 8198,
      "Ġuneasy": 8199,
      "pop": 8200,
      "Ġsecurity": 8201,
      "Ġhorizon": 8202,
      "Ġbasket": 8203,
      "Ġpark": 8204,
      "Ġreferred": 8205,
      "ĠJudge": 8206,
      "returned": 8207,
      "Ġcompleted": 8208,
      "corn": 8209,
      "illings": 8210,
      "Ġprey": 8211,
      "Ġcareless": 8212,
      "ooped": 8213,
      "ĠRuth": 8214,
      "Ġcrest": 8215,
      "Ġwaved": 8216,
      "Ġcontrad": 8217,
      "miss": 8218,
      "Ġreaching": 8219,
      "Ġcontro": 8220,
      "Ġsculpt": 8221,
      "frey": 8222,
      "probably": 8223,
      "Ġmead": 8224,
      "Ġlosing": 8225,
      "Ġalarmed": 8226,
      "ĠAlso": 8227,
      "inding": 8228,
      "ĠPut": 8229,
      "Ġfatig": 8230,
      "bad": 8231,
      "ĠAct": 8232,
      "Ġdecent": 8233,
      "Ġdepos": 8234,
      "det": 8235,
      "Ġhes": 8236,
      "Ġlearnt": 8237,
      "Ġwhereas": 8238,
      "Ġtreatment": 8239,
      "Ġmend": 8240,
      "Ġrevenge": 8241,
      "Ġeditor": 8242,
      "Ġknights": 8243,
      "fold": 8244,
      "Ġstroke": 8245,
      "Ġbalance": 8246,
      "Ġresidence": 8247,
      "Ġwash": 8248,
      "ĠLie": 8249,
      "mel": 8250,
      "forms": 8251,
      "Ġinvitation": 8252,
      "Ġsofa": 8253,
      "Ġtrump": 8254,
      "Ġsecured": 8255,
      "Ġanxiously": 8256,
      "Ġcommunity": 8257,
      "Ġren": 8258,
      "Ġmedic": 8259,
      "anx": 8260,
      "Say": 8261,
      "cad": 8262,
      "Ġclaims": 8263,
      "actly": 8264,
      "Ġreported": 8265,
      "ĠSaint": 8266,
      "aph": 8267,
      "ĠĠĠĠĠĠĠĠĠĠĠĠĠĠĠĠĠĠĠĠĠĠĠĠĠ": 8268,
      "Ġblows": 8269,
      "Ġheavens": 8270,
      "uan": 8271,
      "Ġcaptured": 8272,
      "El": 8273,
      "uk": 8274,
      "Ġheir": 8275,
      "_--": 8276,
      "ĠVenice": 8277,
      "Ġvanity": 8278,
      "urches": 8279,
      "Ġarts": 8280,
      "ĠShakespeare": 8281,
      "public": 8282,
      "Ġcitizens": 8283,
      "sole": 8284,
      "Ġlegal": 8285,
      "Ġfog": 8286,
      "Ġwearing": 8287,
      "conv": 8288,
      "Ġneglect": 8289,
      "Ġmourn": 8290,
      "rael": 8291,
      "Ġinterior": 8292,
      "iary": 8293,
      "Ġfathers": 8294,
      "OND": 8295,
      "ĠAustri": 8296,
      "aston": 8297,
      "ĠVery": 8298,
      "Ġputs": 8299,
      "Ã±": 8300,
      "Ġinterfere": 8301,
      "Ġquestioned": 8302,
      "ĠOt": 8303,
      "ictions": 8304,
      "Ġesc": 8305,
      "Ġdine": 8306,
      "castle": 8307,
      "Ġrestored": 8308,
      "More": 8309,
      "rene": 8310,
      "Ġbehalf": 8311,
      "Ġbuildings": 8312,
      "Ġgown": 8313,
      "Ġclay": 8314,
      "Ġdoubts": 8315,
      "mund": 8316,
      "near": 8317,
      "ras": 8318,
      "sugg": 8319,
      "yourself": 8320,
      "Ġsupre": 8321,
      "chard": 8322,
      "ilda": 8323,
      "ridge": 8324,
      "ĠNay": 8325,
      "Ġcontract": 8326,
      "Ġfastened": 8327,
      "Ġsubtle": 8328,
      "Ġcannon": 8329,
      "Ġtradition": 8330,
      "Ġsupreme": 8331,
      "ĠPur": 8332,
      "commun": 8333,
      "Ġtheatre": 8334,
      "'--": 8335,
      "Ġinspect": 8336,
      "ĠWall": 8337,
      "Ġstruggling": 8338,
      "ications": 8339,
      "Ġawe": 8340,
      "bright": 8341,
      "Ġprophe": 8342,
      "Ġcock": 8343,
      "Ġdeeds": 8344,
      "Ġpassengers": 8345,
      "Ġdew": 8346,
      "ĠIsabel": 8347,
      "ribution": 8348,
      "glas": 8349,
      "ĠGri": 8350,
      "Ġconquer": 8351,
      "Ġpolic": 8352,
      "bra": 8353,
      "iate": 8354,
      "Ġcontented": 8355,
      "Ġsubsequ": 8356,
      "elia": 8357,
      "Ġpersuaded": 8358,
      "Ġpressure": 8359,
      "Ġweapon": 8360,
      "ĠCy": 8361,
      "ciously": 8362,
      "Ġwashed": 8363,
      "Their": 8364,
      "Ġimperfect": 8365,
      "conn": 8366,
      "About": 8367,
      "jour": 8368,
      "unless": 8369,
      "ceiving": 8370,
      "Ġreceiving": 8371,
      "Ġoccasional": 8372,
      "Ġpond": 8373,
      "Ġwarned": 8374,
      "Ġwalks": 8375,
      "RY": 8376,
      "Ġjolly": 8377,
      "ĠArt": 8378,
      "Ġglimpse": 8379,
      "mean": 8380,
      "ĠXXX": 8381,
      "Ġbrush": 8382,
      "Ġproposition": 8383,
      "usually": 8384,
      "ĠFle": 8385,
      "ĠMaria": 8386,
      "Ġgarrison": 8387,
      "etty": 8388,
      "ĠHastings": 8389,
      "rers": 8390,
      "Ġshooting": 8391,
      "Ġcharity": 8392,
      "Ġinterval": 8393,
      "Ġ40": 8394,
      "become": 8395,
      "Ġplatform": 8396,
      "Ġcounted": 8397,
      "inkle": 8398,
      "cas": 8399,
      "Ġsem": 8400,
      "Ġoperation": 8401,
      "Ġoak": 8402,
      "state": 8403,
      "Ġdemonstr": 8404,
      "gings": 8405,
      "Ġdwelling": 8406,
      "Ġfre": 8407,
      "Ġram": 8408,
      "Ġsigned": 8409,
      "ĠWat": 8410,
      "ĠDom": 8411,
      "ĠÃ": 8412,
      "Ġstring": 8413,
      "Ġsolic": 8414,
      "Ġmant": 8415,
      "Ġgorge": 8416,
      "Ġguessed": 8417,
      "ĠBa": 8418,
      "Ġrevel": 8419,
      "ho": 8420,
      "hear": 8421,
      "Ġconceived": 8422,
      "Ġadmired": 8423,
      "Dr": 8424,
      "itations": 8425,
      "whatever": 8426,
      "ball": 8427,
      "ĠHaving": 8428,
      "ibilities": 8429,
      "Ġmillions": 8430,
      "ĠThrough": 8431,
      "orus": 8432,
      "emoiselle": 8433,
      "ints": 8434,
      "Ġdressing": 8435,
      "Ġmeasures": 8436,
      "pain": 8437,
      "Ġcomparison": 8438,
      "26": 8439,
      "Ye": 8440,
      "rick": 8441,
      "Ġmisfortune": 8442,
      "Ġleather": 8443,
      "====": 8444,
      "ĠSpaniards": 8445,
      "ĠEmp": 8446,
      "Ġclimate": 8447,
      "grave": 8448,
      "Ġafore": 8449,
      "Ġblock": 8450,
      "Ġlantern": 8451,
      "Ġupright": 8452,
      "orders": 8453,
      "means": 8454,
      "Ġiii": 8455,
      "help": 8456,
      "immer": 8457,
      "ĠRO": 8458,
      "Ġvirtues": 8459,
      "ĠPan": 8460,
      "Ġsails": 8461,
      "Ġpp": 8462,
      "Ġgifts": 8463,
      "Ġrecall": 8464,
      "Ġchairs": 8465,
      "Mary": 8466,
      "Ġformerly": 8467,
      "Dick": 8468,
      "Ġvisitors": 8469,
      "ĠLeon": 8470,
      "esy": 8471,
      "Ġtwilight": 8472,
      "remark": 8473,
      "danger": 8474,
      "Ġhalted": 8475,
      "fear": 8476,
      "Ġtales": 8477,
      "Ġwages": 8478,
      "ĠYoung": 8479,
      "Ġtreacher": 8480,
      "Ger": 8481,
      "Pl": 8482,
      "Ġinward": 8483,
      "omach": 8484,
      "Ġdreamed": 8485,
      "Ġdenied": 8486,
      "Ġbeer": 8487,
      "Ġdiver": 8488,
      "Ġpled": 8489,
      "Ġhesitation": 8490,
      "Ġprem": 8491,
      "ĠBurn": 8492,
      "inkled": 8493,
      "Ġload": 8494,
      "RAN": 8495,
      "determ": 8496,
      "answer": 8497,
      "ĠON": 8498,
      "Ġimpressed": 8499,
      "Man": 8500,
      "vous": 8501,
      "Ġaristocr": 8502,
      "prison": 8503,
      "Ġresistance": 8504,
      "Ġquit": 8505,
      "Peter": 8506,
      "ĠMax": 8507,
      "Ġsurvey": 8508,
      "office": 8509,
      "Ġsolitude": 8510,
      "Ġfishing": 8511,
      "Ġhearty": 8512,
      "Ġregarding": 8513,
      "Ġpockets": 8514,
      "HER": 8515,
      "Ġstaff": 8516,
      "Ġcares": 8517,
      "Ġconstit": 8518,
      "arian": 8519,
      "Ġcelebrated": 8520,
      "phan": 8521,
      "Ġmob": 8522,
      "Ġtin": 8523,
      "lyn": 8524,
      "Ġleisure": 8525,
      "prep": 8526,
      "udder": 8527,
      "Ġtrembled": 8528,
      "Ġadapt": 8529,
      "Ġenterprise": 8530,
      "enote": 8531,
      "Ġretorted": 8532,
      "unction": 8533,
      "places": 8534,
      "smond": 8535,
      "Ġwestern": 8536,
      "ĠJoan": 8537,
      "Sidenote": 8538,
      "Ġbargain": 8539,
      "Ġassembled": 8540,
      "Ġreconc": 8541,
      "important": 8542,
      "ĠRow": 8543,
      "Ġloc": 8544,
      "Ġlucky": 8545,
      "Ġincome": 8546,
      "Ġsymb": 8547,
      "Ġpermission": 8548,
      "Ġhorrid": 8549,
      "Ġshouting": 8550,
      "ĠFour": 8551,
      "Ġreb": 8552,
      "ĠOliver": 8553,
      "Ġappet": 8554,
      "Ġresour": 8555,
      "Ġguilt": 8556,
      "Ġdisease": 8557,
      "40": 8558,
      "Ġduck": 8559,
      "complete": 8560,
      "Ġcoarse": 8561,
      "CT": 8562,
      "čč": 8563,
      "ĠPart": 8564,
      "Ġdecor": 8565,
      "IA": 8566,
      "Ġcoo": 8567,
      "Ġpatter": 8568,
      "faith": 8569,
      "Pe": 8570,
      "Ġinquiries": 8571,
      "retary": 8572,
      "Rob": 8573,
      "window": 8574,
      "Ġopposed": 8575,
      "ortun": 8576,
      "Ġlur": 8577,
      "Ġsubl": 8578,
      "Ġbrute": 8579,
      "offrey": 8580,
      "Ġcentral": 8581,
      "Ġrushing": 8582,
      "mem": 8583,
      "Ġpowder": 8584,
      "ĠGovernor": 8585,
      "Ġcontaining": 8586,
      "Ġpitch": 8587,
      "riages": 8588,
      "Ġwriters": 8589,
      "try": 8590,
      "Ġfootsteps": 8591,
      "Ġhideous": 8592,
      "Ġadvancing": 8593,
      "Ġrevealed": 8594,
      "famil": 8595,
      "Ġpreferred": 8596,
      "Ġmould": 8597,
      "quarters": 8598,
      "seem": 8599,
      "Ġintelligent": 8600,
      "front": 8601,
      "Ġpassionate": 8602,
      "Ġdivers": 8603,
      "illery": 8604,
      "Ġrepose": 8605,
      "ĠĠĠĠĠĠĠĠĠĠĠĠĠĠĠĠĠĠĠĠĠĠĠĠĠĠ": 8606,
      "Ġwarmth": 8607,
      "ĠFelix": 8608,
      "Ġdumb": 8609,
      "aton": 8610,
      "._]": 8611,
      "cause": 8612,
      "iger": 8613,
      "Ġhaz": 8614,
      "ĠHence": 8615,
      "Ġmanufact": 8616,
      "advantage": 8617,
      "ĠAp": 8618,
      "decl": 8619,
      "aneous": 8620,
      "Ġfaintly": 8621,
      "Ġtroop": 8622,
      "ĠDen": 8623,
      "Ġnarrative": 8624,
      "Ġroot": 8625,
      "company": 8626,
      "reading": 8627,
      "Ġstopping": 8628,
      "Ġirregular": 8629,
      "28": 8630,
      "lour": 8631,
      "Ġdwelt": 8632,
      "cel": 8633,
      "sters": 8634,
      "strous": 8635,
      "Ġwont": 8636,
      "grad": 8637,
      "Ġsettlement": 8638,
      "vin": 8639,
      "Ġstolen": 8640,
      "ĠDuring": 8641,
      "Ġmostly": 8642,
      "Ġinstances": 8643,
      "Ġgross": 8644,
      "eur": 8645,
      "Ġmaintain": 8646,
      "Ġber": 8647,
      "thren": 8648,
      "fish": 8649,
      "Ġgardens": 8650,
      "Ġskipper": 8651,
      "soever": 8652,
      "Ġtribes": 8653,
      "Ġrecognised": 8654,
      "Ġestablishment": 8655,
      "carried": 8656,
      "Ġimpatient": 8657,
      "iquity": 8658,
      "mot": 8659,
      "Ġconvenient": 8660,
      "tra": 8661,
      "Ġunion": 8662,
      "ĠRay": 8663,
      "Ġhumor": 8664,
      "Ġcitizen": 8665,
      "Ġphot": 8666,
      "oubtedly": 8667,
      "ustry": 8668,
      "oughs": 8669,
      "Ġneighbours": 8670,
      "entered": 8671,
      "iron": 8672,
      "Ġleads": 8673,
      "ĠKnight": 8674,
      "Ġreef": 8675,
      "ĠDorothy": 8676,
      "fif": 8677,
      "angled": 8678,
      "ĠWorld": 8679,
      "ĠCham": 8680,
      "zing": 8681,
      "ĠTown": 8682,
      "Ġlawn": 8683,
      "Ġdamp": 8684,
      "Ġgasped": 8685,
      "Ġspear": 8686,
      "ĠMoreover": 8687,
      "ĠNovember": 8688,
      "Ġranks": 8689,
      "ĠClare": 8690,
      "\"_": 8691,
      "Ġwrapped": 8692,
      "ĠCatholic": 8693,
      "Ġtrunk": 8694,
      "Ġfox": 8695,
      "Ġseats": 8696,
      "ĠTra": 8697,
      "Ġplunged": 8698,
      "Ġshaken": 8699,
      "Ġfaced": 8700,
      "enery": 8701,
      "Ġsacrific": 8702,
      "ĠDry": 8703,
      "Once": 8704,
      "Ġhoarse": 8705,
      "Ġchuck": 8706,
      "Ġalas": 8707,
      "Ġlament": 8708,
      "Ġrebell": 8709,
      "Ġlimited": 8710,
      "Ġbreathing": 8711,
      "ebru": 8712,
      "Ġrelative": 8713,
      "iations": 8714,
      "received": 8715,
      "Ġprodig": 8716,
      "ifications": 8717,
      "Ġlandscape": 8718,
      "says": 8719,
      "ĠDE": 8720,
      "Ġwander": 8721,
      "orial": 8722,
      "........": 8723,
      "Ġobedience": 8724,
      "Ġbrood": 8725,
      "ebruary": 8726,
      "VE": 8727,
      "pson": 8728,
      "relig": 8729,
      "doing": 8730,
      "Ġinstructions": 8731,
      "Father": 8732,
      "Ġboldly": 8733,
      "erer": 8734,
      "Ġfloating": 8735,
      "Ġsatisfy": 8736,
      "ĠSusan": 8737,
      "Ġdin": 8738,
      "Ġsupplied": 8739,
      "ĠĠĠĠĠĠĠĠĠĠĠĠĠĠĠĠĠĠĠĠĠĠĠĠĠĠĠĠ": 8740,
      "29": 8741,
      "ĠĠĠĠĠĠĠĠĠĠĠĠĠĠĠĠĠĠĠĠĠĠĠĠĠĠĠĠĠ": 8742,
      "ĠCraw": 8743,
      "Ġbrut": 8744,
      "ĠĠĠĠĠĠĠĠĠĠĠĠĠĠĠĠĠĠĠĠĠĠĠĠĠĠĠ": 8745,
      "incip": 8746,
      "Ġeldest": 8747,
      "istr": 8748,
      "Ġartific": 8749,
      "kept": 8750,
      "Ġgleam": 8751,
      "KE": 8752,
      "Ġdaring": 8753,
      "Ġsym": 8754,
      "Ġlightning": 8755,
      "ogue": 8756,
      "brance": 8757,
      "Ġseconds": 8758,
      "Ġcomrade": 8759,
      "Ġacknowledged": 8760,
      "ĠJos": 8761,
      "INE": 8762,
      "Ġemployment": 8763,
      "during": 8764,
      "Ġarise": 8765,
      "Ġcurtain": 8766,
      "Ġattracted": 8767,
      "esc": 8768,
      "Ġslavery": 8769,
      "retion": 8770,
      "Ġfunny": 8771,
      "Ġfisher": 8772,
      "unce": 8773,
      "Ġtu": 8774,
      "ribute": 8775,
      "Ġseventy": 8776,
      "Ġfollowers": 8777,
      "ĠWater": 8778,
      "Ġexisting": 8779,
      "Ġpersec": 8780,
      "ICK": 8781,
      "sleep": 8782,
      "Ã¡": 8783,
      "Ġkne": 8784,
      "Ġthoughtful": 8785,
      "Ġchase": 8786,
      "Ġelev": 8787,
      "iii": 8788,
      "Ġinspir": 8789,
      "berry": 8790,
      "gall": 8791,
      "married": 8792,
      "Ġtragedy": 8793,
      "inces": 8794,
      "rise": 8795,
      "ĠBern": 8796,
      "Ġbuff": 8797,
      "Ġpretended": 8798,
      "nation": 8799,
      "ril": 8800,
      "Gu": 8801,
      "Ġlegend": 8802,
      "Ġfounded": 8803,
      "Ġawakened": 8804,
      "Ġproceedings": 8805,
      "Ġassume": 8806,
      "Ġwithdraw": 8807,
      "attempt": 8808,
      "During": 8809,
      "inv": 8810,
      "ĠVI": 8811,
      "ĠVictor": 8812,
      "learn": 8813,
      "Ġenjoyment": 8814,
      "priv": 8815,
      "fallen": 8816,
      "herent": 8817,
      "ĠCec": 8818,
      "Ġadvantages": 8819,
      "Ġdepths": 8820,
      "rooms": 8821,
      "seeing": 8822,
      "oa": 8823,
      "ieu": 8824,
      "Ġgrows": 8825,
      "Ġhaul": 8826,
      "ounding": 8827,
      "Ġdismay": 8828,
      "ĠCouncil": 8829,
      "Ġdece": 8830,
      "Ġrespond": 8831,
      "Ġcollection": 8832,
      "Ġmotives": 8833,
      "tre": 8834,
      "onial": 8835,
      "Ġhandle": 8836,
      "azed": 8837,
      "sar": 8838,
      "estab": 8839,
      "former": 8840,
      "Ġrestless": 8841,
      "Ġperfection": 8842,
      "free": 8843,
      "Ġpig": 8844,
      "Ġbelongs": 8845,
      "aved": 8846,
      "Ġrasc": 8847,
      "ĠJerry": 8848,
      "Ġprincess": 8849,
      "iser": 8850,
      "Ġthir": 8851,
      "ĠBon": 8852,
      "Ġrescue": 8853,
      "inally": 8854,
      "ĠMah": 8855,
      "Ġjustified": 8856,
      "concern": 8857,
      "became": 8858,
      "Ġcomparatively": 8859,
      "thou": 8860,
      "Ġneglected": 8861,
      "Ġruff": 8862,
      "Ġindicated": 8863,
      "ĠMex": 8864,
      "Ġexchange": 8865,
      "Ġyielded": 8866,
      "urious": 8867,
      "apa": 8868,
      "getting": 8869,
      "Ġpurchas": 8870,
      "Like": 8871,
      "organ": 8872,
      "Ġprepare": 8873,
      "recogn": 8874,
      "Ġgoss": 8875,
      "ĠSop": 8876,
      "Ġfolded": 8877,
      "Bar": 8878,
      "Ġcards": 8879,
      "Ġincluding": 8880,
      "ĠHy": 8881,
      "Ġerrand": 8882,
      "aus": 8883,
      "Ġ$": 8884,
      "Ġdoubted": 8885,
      "Ġoffering": 8886,
      "oster": 8887,
      "Ġzeal": 8888,
      "mal": 8889,
      "Ġwasted": 8890,
      "Ġ189": 8891,
      "ĠCat": 8892,
      "Ġinduce": 8893,
      "proceed": 8894,
      "distance": 8895,
      "Ġconducted": 8896,
      "Ġpuff": 8897,
      "Ġfurious": 8898,
      ",--\"": 8899,
      "Ġbench": 8900,
      "ĠLake": 8901,
      "Ġdeserve": 8902,
      "dale": 8903,
      "Ġproposal": 8904,
      "Ġsquire": 8905,
      "gle": 8906,
      "erick": 8907,
      "Ġnut": 8908,
      "Ġabandon": 8909,
      "sn": 8910,
      "Ġnet": 8911,
      "isten": 8912,
      "Ġembr": 8913,
      "Ġhatred": 8914,
      "Having": 8915,
      "ĠSab": 8916,
      "Ġpressing": 8917,
      "Ġcommonly": 8918,
      "Shall": 8919,
      "Ġowned": 8920,
      "Ġdiscourse": 8921,
      "ĠMarquis": 8922,
      "Ġcriticism": 8923,
      "influ": 8924,
      "Ġcongrat": 8925,
      "lines": 8926,
      "Ġsummit": 8927,
      "ĠGuy": 8928,
      "ĠNevertheless": 8929,
      "Ġgale": 8930,
      "Ġexagger": 8931,
      "sens": 8932,
      "pherd": 8933,
      "apan": 8934,
      "Ġangels": 8935,
      "unken": 8936,
      "bank": 8937,
      "Ġhook": 8938,
      "Ġindifference": 8939,
      "Ġhind": 8940,
      "idd": 8941,
      "ĠJews": 8942,
      "cre": 8943,
      "Ġau": 8944,
      "Ġindividuals": 8945,
      "isible": 8946,
      "Ġmorn": 8947,
      "Ġdrowned": 8948,
      "Ġfant": 8949,
      "ĠWhether": 8950,
      "skin": 8951,
      "Ġbrass": 8952,
      "ange": 8953,
      "Though": 8954,
      "Ġslender": 8955,
      "Ġverses": 8956,
      "Ġsubmit": 8957,
      "riday": 8958,
      "Ġshell": 8959,
      "fert": 8960,
      "blue": 8961,
      "uthors": 8962,
      "ARD": 8963,
      "Ġportrait": 8964,
      "dear": 8965,
      "Ġgrain": 8966,
      "Ġmast": 8967,
      "Ġpear": 8968,
      "Ġseeds": 8969,
      "gers": 8970,
      "Ġcanvas": 8971,
      "stud": 8972,
      "Ġchecked": 8973,
      "Ġ----": 8974,
      "Ġtie": 8975,
      "iano": 8976,
      "ĠCountess": 8977,
      "wed": 8978,
      "azine": 8979,
      "cott": 8980,
      "Ġunjust": 8981,
      "avement": 8982,
      "Ġdesires": 8983,
      "Ġfinest": 8984,
      "Ġincreasing": 8985,
      "Ġscandal": 8986,
      "ĠWere": 8987,
      "Ġassurance": 8988,
      "Ġsongs": 8989,
      "ĠNich": 8990,
      "Ġentitled": 8991,
      "Ġawoke": 8992,
      "Ġillness": 8993,
      "Ġemotions": 8994,
      "Ġfoe": 8995,
      "expression": 8996,
      "bod": 8997,
      "ĠMAN": 8998,
      "ĠWithout": 8999,
      "Ġparticulars": 9000,
      "Ġreverence": 9001,
      "Ġrecommend": 9002,
      "Har": 9003,
      "Ġratt": 9004,
      "Ġspared": 9005,
      "Ġminor": 9006,
      "ulus": 9007,
      "Ġcorp": 9008,
      "Ġstores": 9009,
      "opened": 9010,
      "ĠGive": 9011,
      "Ġruins": 9012,
      "Ġworry": 9013,
      "Ġthrong": 9014,
      "Ġcontact": 9015,
      "ensions": 9016,
      "Ġmotionless": 9017,
      "sex": 9018,
      "ĠPruss": 9019,
      "ordered": 9020,
      "Ġproceeding": 9021,
      "chers": 9022,
      "inence": 9023,
      "Ġstandard": 9024,
      "Ġtorment": 9025,
      "laugh": 9026,
      "ĠĠĠĠĠĠĠĠĠĠĠĠĠĠĠ": 9027,
      "grown": 9028,
      "inating": 9029,
      "Ġhasn": 9030,
      "Ġmaintained": 9031,
      "Ġupward": 9032,
      "keness": 9033,
      "Ġmurdered": 9034,
      "Ġsaving": 9035,
      "Ġoverwhel": 9036,
      "Ġreserve": 9037,
      "mill": 9038,
      "agle": 9039,
      "Ġsailing": 9040,
      "pretty": 9041,
      "impossible": 9042,
      "Ġpush": 9043,
      "Ġextravag": 9044,
      "Ġtravelled": 9045,
      "Ġissued": 9046,
      "Ġboast": 9047,
      "LADY": 9048,
      "Ġglancing": 9049,
      "Ġbarn": 9050,
      "Ġmethods": 9051,
      "rain": 9052,
      "Ġwhither": 9053,
      "Ġlin": 9054,
      "ART": 9055,
      "OS": 9056,
      "Ġprofess": 9057,
      "changed": 9058,
      "Ġperformance": 9059,
      "Ġsom": 9060,
      "Ġsullen": 9061,
      "ĠBecause": 9062,
      "around": 9063,
      "ĠFe": 9064,
      "Ġcaution": 9065,
      "Ġmonkey": 9066,
      "Ġpersuade": 9067,
      "conversation": 9068,
      "Ġattempts": 9069,
      "ĠMess": 9070,
      "ĠMonday": 9071,
      "ranny": 9072,
      "books": 9073,
      "unter": 9074,
      "Ġgas": 9075,
      "uttered": 9076,
      "Ġswords": 9077,
      "lost": 9078,
      "Ġfence": 9079,
      "aux": 9080,
      "dream": 9081,
      "teenth": 9082,
      "understood": 9083,
      "pock": 9084,
      "Ġlip": 9085,
      "Ġjer": 9086,
      "ferred": 9087,
      "Ġhunter": 9088,
      "Ġdriver": 9089,
      "pest": 9090,
      "Ġbloody": 9091,
      "Ġschools": 9092,
      "reve": 9093,
      "Ġincap": 9094,
      "struck": 9095,
      "move": 9096,
      "escap": 9097,
      "ĠTill": 9098,
      "Ġstaying": 9099,
      "omp": 9100,
      "ĠMichael": 9101,
      "Ġsummoned": 9102,
      "Ġrarely": 9103,
      "Ġwarriors": 9104,
      "written": 9105,
      "Ġviolently": 9106,
      "Ġanyway": 9107,
      "Ġbrisk": 9108,
      "Ġresign": 9109,
      "Ġpatriot": 9110,
      "sort": 9111,
      "OH": 9112,
      "!_": 9113,
      "stock": 9114,
      "Ġridge": 9115,
      "Ġpractically": 9116,
      "added": 9117,
      "Ġcoloured": 9118,
      "Ġdislike": 9119,
      "ĠChristians": 9120,
      "vived": 9121,
      "Ġsteal": 9122,
      "ĠAmericans": 9123,
      "Ġoft": 9124,
      "ĠGerald": 9125,
      "Ġinjury": 9126,
      "olph": 9127,
      "Ġdiffer": 9128,
      "ĠMars": 9129,
      "ĠProtest": 9130,
      "Ġsurv": 9131,
      "Upon": 9132,
      "Ġpreparing": 9133,
      "ĠJeff": 9134,
      "Ġdifferences": 9135,
      "Ġcritical": 9136,
      "Ġgenerations": 9137,
      "ĠFox": 9138,
      "Ġvengeance": 9139,
      "ĠEv": 9140,
      "Ġ=": 9141,
      "ĠBas": 9142,
      "story": 9143,
      "treat": 9144,
      "Ġvener": 9145,
      "afterwards": 9146,
      "express": 9147,
      "Ġpalm": 9148,
      "ka": 9149,
      "Ġcigaret": 9150,
      "Ġtotal": 9151,
      "umerable": 9152,
      "alia": 9153,
      "ĠHart": 9154,
      "cheon": 9155,
      "Ġwars": 9156,
      "Ġsugar": 9157,
      "Ġappropri": 9158,
      "ursed": 9159,
      "Ġtriumphant": 9160,
      "Ġvillages": 9161,
      "pi": 9162,
      "Ġsaints": 9163,
      "Ġselected": 9164,
      "ourable": 9165,
      "attention": 9166,
      "Ġpreparations": 9167,
      "ieves": 9168,
      "Ġcommander": 9169,
      "Ġhunger": 9170,
      "Ġyourselves": 9171,
      "whis": 9172,
      "pal": 9173,
      "ĠIS": 9174,
      "ĠRE": 9175,
      "Ġschooner": 9176,
      "ixture": 9177,
      "Ġaltar": 9178,
      "Ġpresume": 9179,
      "separ": 9180,
      "ĠJohnson": 9181,
      "Those": 9182,
      "Ġoccupation": 9183,
      "purpose": 9184,
      "Ġinvolved": 9185,
      "lk": 9186,
      "ĠEll": 9187,
      "Ġvaried": 9188,
      "ĠRussian": 9189,
      "Ġtempted": 9190,
      "Ġsouthern": 9191,
      "HAT": 9192,
      "Ġinfant": 9193,
      "fashioned": 9194,
      "ĠPers": 9195,
      "Ġgarments": 9196,
      "Ġjoint": 9197,
      "Ġfoundation": 9198,
      "oubled": 9199,
      "Ġtables": 9200,
      "start": 9201,
      "Ġapply": 9202,
      "Ġfragments": 9203,
      "ustrious": 9204,
[...]
